{
  "version": "1.0",
  "truncation": null,
  "padding": null,
  "added_tokens": [
    {
      "id": 0,
      "content": "[UNK]",
      "single_word": false,
      "lstrip": false,
      "rstrip": false,
      "normalized": false,
      "special": true
    },
    {
      "id": 1,
      "content": "[CLS]",
      "single_word": false,
      "lstrip": false,
      "rstrip": false,
      "normalized": false,
      "special": true
    },
    {
      "id": 2,
      "content": "[SEP]",
      "single_word": false,
      "lstrip": false,
      "rstrip": false,
      "normalized": false,
      "special": true
    },
    {
      "id": 3,
      "content": "[PAD]",
      "single_word": false,
      "lstrip": false,
      "rstrip": false,
      "normalized": false,
      "special": true
    },
    {
      "id": 4,
      "content": "[MASK]",
      "single_word": false,
      "lstrip": false,
      "rstrip": false,
      "normalized": false,
      "special": true
    }
  ],
  "normalizer": null,
  "pre_tokenizer": {
    "type": "Whitespace"
  },
  "post_processor": null,
  "decoder": null,
  "model": {
    "type": "BPE",
    "dropout": null,
    "unk_token": "[UNK]",
    "continuing_subword_prefix": null,
    "end_of_word_suffix": null,
    "fuse_unk": false,
    "byte_fallback": false,
    "vocab": {
      "[UNK]": 0,
      "[CLS]": 1,
      "[SEP]": 2,
      "[PAD]": 3,
      "[MASK]": 4,
      ".": 5,
      "/": 6,
      "1": 7,
      "5": 8,
      "6": 9,
      "9": 10,
      ":": 11,
      "A": 12,
      "B": 13,
      "C": 14,
      "D": 15,
      "E": 16,
      "F": 17,
      "G": 18,
      "H": 19,
      "I": 20,
      "K": 21,
      "L": 22,
      "M": 23,
      "N": 24,
      "O": 25,
      "P": 26,
      "Q": 27,
      "R": 28,
      "S": 29,
      "T": 30,
      "U": 31,
      "V": 32,
      "W": 33,
      "Y": 34,
      "Z": 35,
      "a": 36,
      "b": 37,
      "c": 38,
      "d": 39,
      "e": 40,
      "f": 41,
      "g": 42,
      "h": 43,
      "i": 44,
      "j": 45,
      "k": 46,
      "l": 47,
      "m": 48,
      "n": 49,
      "o": 50,
      "p": 51,
      "q": 52,
      "r": 53,
      "s": 54,
      "t": 55,
      "u": 56,
      "v": 57,
      "x": 58,
      "y": 59,
      "z": 60,
      "ü": 61,
      "đ": 62,
      "ę": 63,
      "ħ": 64,
      "ƀ": 65,
      "ˢ": 66,
      "̄": 67,
      "̅": 68,
      "ͥ": 69,
      "ͦ": 70,
      "ͧ": 71,
      "᷒": 72,
      "ᷓ": 73,
      "–": 74,
      "ꝁ": 75,
      "ꝉ": 76,
      "Ꝑ": 77,
      "ꝑ": 78,
      "Ꝓ": 79,
      "ꝓ": 80,
      "Ꝗ": 81,
      "ꝗ": 82,
      "ꝝ": 83,
      "": 84,
      "": 85,
      "": 86,
      "": 87,
      "": 88,
      "": 89,
      "": 90,
      "": 91,
      "": 92,
      "": 93,
      "is": 94,
      "er": 95,
      "in": 96,
      "at": 97,
      "it": 98,
      "us": 99,
      "qu": 100,
      "on": 101,
      "en": 102,
      "et": 103,
      "es": 104,
      "um": 105,
      "an": 106,
      "or": 107,
      "ic": 108,
      "li": 109,
      "de": 110,
      "re": 111,
      "ut": 112,
      "ep": 113,
      "iu": 114,
      "ia": 115,
      "ent": 116,
      "os": 117,
      "ū": 118,
      "im": 119,
      "co": 120,
      "am": 121,
      "ur": 122,
      "se": 123,
      "ac": 124,
      "pr": 125,
      "ib": 126,
      "su": 127,
      "di": 128,
      "em": 129,
      "ar": 130,
      "ul": 131,
      "con": 132,
      "ant": 133,
      "ad": 134,
      "ion": 135,
      "ec": 136,
      "uer": 137,
      "ap": 138,
      "un": 139,
      "ab": 140,
      "ci": 141,
      "si": 142,
      "om": 143,
      "qui": 144,
      "est": 145,
      "st": 146,
      "epis": 147,
      "ol": 148,
      "cop": 149,
      "al": 150,
      "episcop": 151,
      "ii": 152,
      "ali": 153,
      "dic": 154,
      "ere": 155,
      "ep̅": 156,
      "oc": 157,
      "el": 158,
      "c̅": 159,
      "as": 160,
      "aut": 161,
      "non": 162,
      "ius": 163,
      "ex": 164,
      "il": 165,
      "per": 166,
      "od": 167,
      "ā": 168,
      "De": 169,
      "itat": 170,
      "tr": 171,
      "iun": 172,
      "ē": 173,
      "ter": 174,
      "ibus": 175,
      "ot": 176,
      "cc": 177,
      "Ex": 178,
      "end": 179,
      "ation": 180,
      "io": 181,
      "ie": 182,
      "orum": 183,
      "ui": 184,
      "pro": 185,
      "Cap": 186,
      "au": 187,
      "eb": 188,
      "ieiun": 189,
      "ęcc": 190,
      "n̅": 191,
      "erit": 192,
      "cr": 193,
      "ord": 194,
      "are": 195,
      "ct": 196,
      "int": 197,
      "eg": 198,
      "ro": 199,
      "deb": 200,
      "quis": 201,
      "unt": 202,
      "nec": 203,
      "uerit": 204,
      "eat": 205,
      "pl": 206,
      "fi": 207,
      "ip": 208,
      "uit": 209,
      "ag": 210,
      "ob": 211,
      "iss": 212,
      "ordin": 213,
      "que": 214,
      "uen": 215,
      "sed": 216,
      "omin": 217,
      "and": 218,
      "ium": 219,
      "sac": 220,
      "pos": 221,
      "sit": 222,
      "Qu": 223,
      "iam": 224,
      "les": 225,
      "ti": 226,
      "ens": 227,
      "iudic": 228,
      "ull": 229,
      "cus": 230,
      "atur": 231,
      "omn": 232,
      "cip": 233,
      "por": 234,
      "uel": 235,
      "dem": 236,
      "itate": 237,
      "cili": 238,
      "quę": 239,
      "e̅": 240,
      "itul": 241,
      "ibi": 242,
      "p̄": 243,
      "hab": 244,
      "lic": 245,
      "ri": 246,
      "": 247,
      "inc": 248,
      "iū": 249,
      "ari": 250,
      "ęccles": 251,
      "ea": 252,
      "Vt": 253,
      "ione": 254,
      "ect": 255,
      "du": 256,
      "domin": 257,
      "ser": 258,
      "entia": 259,
      "itulum": 260,
      "nt": 261,
      "fac": 262,
      "par": 263,
      "sol": 264,
      "ess": 265,
      "ill": 266,
      "Capitulum": 267,
      "miss": 268,
      "orū": 269,
      "Cap̅": 270,
      "ię": 271,
      "null": 272,
      "fr": 273,
      "Si": 274,
      "sunt": 275,
      "pra": 276,
      "concili": 277,
      "com": 278,
      "ca": 279,
      "dis": 280,
      "fic": 281,
      "tem": 282,
      "reg": 283,
      "min": 284,
      "atis": 285,
      "sub": 286,
      "ęccꝉ": 287,
      "pon": 288,
      "accus": 289,
      "ud": 290,
      "atus": 291,
      "nis": 292,
      "ne": 293,
      "ita": 294,
      "gr": 295,
      "iter": 296,
      "etur": 297,
      "ta": 298,
      "san": 299,
      "sus": 300,
      "ensi": 301,
      "mun": 302,
      "atione": 303,
      "cum": 304,
      "nos": 305,
      "quia": 306,
      "p̅": 307,
      "quam": 308,
      "ine": 309,
      "qua": 310,
      "esse": 311,
      "sacer": 312,
      "fuerit": 313,
      "stit": 314,
      "sy": 315,
      "imus": 316,
      "episcopus": 317,
      "ep̅s": 318,
      "ueni": 319,
      "ed": 320,
      "syn": 321,
      "eius": 322,
      "sacerd": 323,
      "seru": 324,
      "..": 325,
      "cl": 326,
      "pot": 327,
      "uis": 328,
      "eo": 329,
      "concilio": 330,
      "gn": 331,
      "quā": 332,
      "res": 333,
      "ch": 334,
      "op": 335,
      "hoc": 336,
      "synod": 337,
      "sanct": 338,
      "caus": 339,
      "tis": 340,
      "ante": 341,
      "uinc": 342,
      "id": 343,
      "antur": 344,
      "pet": 345,
      "nisi": 346,
      "xx": 347,
      "ann": 348,
      "tin": 349,
      "sacerdot": 350,
      "fer": 351,
      "lig": 352,
      "cor": 353,
      "dieb": 354,
      "pat": 355,
      "aliquis": 356,
      "sc̅": 357,
      "tol": 358,
      "Ut": 359,
      "leg": 360,
      "quod": 361,
      "tra": 362,
      "cū": 363,
      "episcopi": 364,
      "ep̅i": 365,
      "Quod": 366,
      "te": 367,
      "dec": 368,
      "sibi": 369,
      "met": 370,
      "om̅": 371,
      "Et": 372,
      "tam": 373,
      "quo": 374,
      "lib": 375,
      "port": 376,
      "uius": 377,
      "ata": 378,
      "cō": 379,
      "ast": 380,
      "sum": 381,
      "ior": 382,
      "uincia": 383,
      "can": 384,
      "sent": 385,
      "ciꝉ": 386,
      "pap": 387,
      "decr": 388,
      "olit": 389,
      "man": 390,
      "ist": 391,
      "episcopis": 392,
      "ciu": 393,
      "eri": 394,
      "stitut": 395,
      "car": 396,
      "ati": 397,
      "rop": 398,
      "c̅ciꝉ": 399,
      "eant": 400,
      "ili": 401,
      "sc": 402,
      "vii": 403,
      "tē": 404,
      "uoc": 405,
      "iā": 406,
      "ep̅is": 407,
      "dē": 408,
      "dies": 409,
      "ma": 410,
      "ator": 411,
      "cep": 412,
      "dn̅": 413,
      "sic": 414,
      "icis": 415,
      "prim": 416,
      "nullus": 417,
      "metrop": 418,
      "iis": 419,
      "ir": 420,
      "ica": 421,
      "olitan": 422,
      "Est": 423,
      "neg": 424,
      "cipi": 425,
      "alter": 426,
      "canon": 427,
      "papa": 428,
      "bi": 429,
      "crim": 430,
      "pt": 431,
      "In": 432,
      "mo": 433,
      "ing": 434,
      "ech": 435,
      "metropolitan": 436,
      "rag": 437,
      "dam": 438,
      "ei": 439,
      "ebr": 440,
      "qͥ": 441,
      "pres": 442,
      "uero": 443,
      "cel": 444,
      "uerint": 445,
      "abst": 446,
      "ep̅o": 447,
      "potest": 448,
      "cur": 449,
      "quad": 450,
      "uol": 451,
      "frat": 452,
      "ris": 453,
      "ato": 454,
      "itur": 455,
      "itas": 456,
      "roech": 457,
      "ęcclesia": 458,
      "parroech": 459,
      "decret": 460,
      "ieiunium": 461,
      "obseru": 462,
      "iunt": 463,
      "sine": 464,
      "tran": 465,
      "ctor": 466,
      "inter": 467,
      "qđ": 468,
      "sua": 469,
      "die": 470,
      "apos": 471,
      "ell": 472,
      "itatis": 473,
      "to": 474,
      "commun": 475,
      "his": 476,
      "uic": 477,
      "ore": 478,
      "red": 479,
      "cę": 480,
      "eos": 481,
      "for": 482,
      "ffic": 483,
      "entes": 484,
      "plac": 485,
      "diebus": 486,
      "Qđ": 487,
      "scr": 488,
      "eadem": 489,
      "eis": 490,
      "oport": 491,
      "apꝉ": 492,
      "ente": 493,
      "mon": 494,
      "rm": 495,
      "arum": 496,
      "suis": 497,
      "esim": 498,
      "papae": 499,
      "doc": 500,
      "gen": 501,
      "pp̅": 502,
      "suo": 503,
      "ionis": 504,
      "auctor": 505,
      "sacr": 506,
      "itis": 507,
      "quadrag": 508,
      "cib": 509,
      "diu": 510,
      "sp": 511,
      "ina": 512,
      "entur": 513,
      "dign": 514,
      "episcopo": 515,
      "episcopum": 516,
      "...": 517,
      "odo": 518,
      "alis": 519,
      "necess": 520,
      "minis": 521,
      "celebr": 522,
      "abstin": 523,
      "tant": 524,
      "andi": 525,
      "ep̅m": 526,
      "firm": 527,
      "cun": 528,
      "ath": 529,
      "atio": 530,
      "cler": 531,
      "apostol": 532,
      "vi": 533,
      "dum": 534,
      "r̅": 535,
      "itus": 536,
      "stat": 537,
      "endum": 538,
      "post": 539,
      "reli": 540,
      "fide": 541,
      "ra": 542,
      "eret": 543,
      "des": 544,
      "edi": 545,
      "fest": 546,
      "mor": 547,
      "tum": 548,
      "ua": 549,
      "iug": 550,
      "ecc": 551,
      "debeant": 552,
      "ips": 553,
      "anda": 554,
      "act": 555,
      "sicut": 556,
      "cul": 557,
      "nr̅": 558,
      "autem": 559,
      "enda": 560,
      "lo": 561,
      "loc": 562,
      "pre": 563,
      "ici": 564,
      "quid": 565,
      "episcoporum": 566,
      "fieri": 567,
      "pore": 568,
      "illis": 569,
      "causa": 570,
      "test": 571,
      "ime": 572,
      "abs": 573,
      "obis": 574,
      "sal": 575,
      "enus": 576,
      "debeat": 577,
      "ęcclesię": 578,
      "dia": 579,
      "ī": 580,
      "pop": 581,
      "enim": 582,
      "ionem": 583,
      "illi": 584,
      "la": 585,
      "pell": 586,
      "decretis": 587,
      "scrip": 588,
      "super": 589,
      "arū": 590,
      "propr": 591,
      "ub": 592,
      "ando": 593,
      "ee̅": 594,
      "hon": 595,
      "uli": 596,
      "biter": 597,
      "uin": 598,
      "constitut": 599,
      "endo": 600,
      "ationes": 601,
      "temp": 602,
      "crimin": 603,
      "det": 604,
      "ig": 605,
      "rum": 606,
      "inqu": 607,
      "rem": 608,
      "amus": 609,
      "oli": 610,
      "ug": 611,
      "uest": 612,
      "prouincia": 613,
      "ieiuniū": 614,
      "rog": 615,
      "omnibus": 616,
      "ęccꝉę": 617,
      "eu": 618,
      "mag": 619,
      "sint": 620,
      "ini": 621,
      "ores": 622,
      "ationis": 623,
      "faci": 624,
      "solu": 625,
      "praec": 626,
      "uenire": 627,
      "ieiunio": 628,
      "eorum": 629,
      "sep": 630,
      "prop": 631,
      "synodo": 632,
      "lect": 633,
      "noc": 634,
      "tent": 635,
      "erg": 636,
      "ico": 637,
      "deo": 638,
      "sui": 639,
      "abb": 640,
      "debet": 641,
      "pleb": 642,
      "omnes": 643,
      "licet": 644,
      "rig": 645,
      "ih": 646,
      "mit": 647,
      "ꝓuincia": 648,
      "atum": 649,
      "etiam": 650,
      "ationem": 651,
      "nostr": 652,
      "presbiter": 653,
      "cap": 654,
      "fam": 655,
      "pas": 656,
      "xp̅": 657,
      "xvii": 658,
      "ern": 659,
      "inis": 660,
      "rect": 661,
      "iue": 662,
      "itatem": 663,
      "iudicio": 664,
      "sim": 665,
      "huius": 666,
      "it̅": 667,
      "icę": 668,
      "ulis": 669,
      "quadragesim": 670,
      "iii": 671,
      "hib": 672,
      "homin": 673,
      "offic": 674,
      "pul": 675,
      "tū": 676,
      "anim": 677,
      "secr": 678,
      "debent": 679,
      "fuit": 680,
      "eum": 681,
      "pƀ": 682,
      "tat": 683,
      "dei": 684,
      "endū": 685,
      "domini": 686,
      "Qui": 687,
      "ced": 688,
      "fec": 689,
      "greg": 690,
      "uent": 691,
      "ano": 692,
      "alli": 693,
      "iiii": 694,
      "uig": 695,
      "ipse": 696,
      "cōmun": 697,
      "auctoritate": 698,
      "apud": 699,
      "tim": 700,
      "xl": 701,
      "quos": 702,
      "aliqua": 703,
      "habeat": 704,
      "auerit": 705,
      "bus": 706,
      "hę": 707,
      "sabb": 708,
      "erint": 709,
      "str": 710,
      "ipsi": 711,
      "nat": 712,
      "num": 713,
      "tu": 714,
      "ten": 715,
      "eter": 716,
      "lit": 717,
      "nobis": 718,
      "quibus": 719,
      "def": 720,
      "reuer": 721,
      "entis": 722,
      "sili": 723,
      "aud": 724,
      "ieiunii": 725,
      "sedis": 726,
      "ponti": 727,
      "anni": 728,
      "cui": 729,
      "erat": 730,
      "suꝑ": 731,
      "suam": 732,
      "ionē": 733,
      "om̅s": 734,
      "ret": 735,
      "siue": 736,
      "tur": 737,
      "ꝓpr": 738,
      "infirm": 739,
      "ate": 740,
      "atenus": 741,
      "enī": 742,
      "suę": 743,
      "iones": 744,
      "uir": 745,
      "uisse": 746,
      "alterius": 747,
      "necessitate": 748,
      "dā": 749,
      "mis": 750,
      "ux": 751,
      "entiam": 752,
      "ęcclesiam": 753,
      "dn̅i": 754,
      "praes": 755,
      "dom": 756,
      "fect": 757,
      "oꝝ": 758,
      "rom": 759,
      "sen": 760,
      "atque": 761,
      "quem": 762,
      "uti": 763,
      "iur": 764,
      "emos": 765,
      "elemos": 766,
      "itatē": 767,
      "issim": 768,
      "maior": 769,
      "tus": 770,
      "atū": 771,
      "prae": 772,
      "han": 773,
      "ific": 774,
      "nem": 775,
      "pecc": 776,
      "uul": 777,
      "atq": 778,
      "orem": 779,
      "uerat": 780,
      "ale": 781,
      "alic": 782,
      "aliis": 783,
      "alien": 784,
      "ieiunia": 785,
      "inta": 786,
      "disc": 787,
      "magis": 788,
      "ian": 789,
      "etiā": 790,
      "di̅": 791,
      "ationē": 792,
      "ęcclesiast": 793,
      "hum": 794,
      "hos": 795,
      "lac": 796,
      "rit": 797,
      "sci": 798,
      "uiu": 799,
      "ates": 800,
      "entibus": 801,
      "priu": 802,
      "dilig": 803,
      "emus": 804,
      "aduer": 805,
      "audi": 806,
      "tamen": 807,
      "eū": 808,
      "": 809,
      "sem": 810,
      "untur": 811,
      "decim": 812,
      "int̅": 813,
      "cred": 814,
      "son": 815,
      "alia": 816,
      "possit": 817,
      "duo": 818,
      "accusator": 819,
      "chris": 820,
      "parroechia": 821,
      "oporteat": 822,
      "propter": 823,
      "ihil": 824,
      "c̅cili": 825,
      "cuius": 826,
      "me": 827,
      "up": 828,
      "prius": 829,
      "cid": 830,
      "fr̅": 831,
      "hor": 832,
      "rest": 833,
      "sing": 834,
      "ues": 835,
      "quē": 836,
      "dioc": 837,
      "cir": 838,
      "ieiuni": 839,
      "ęccꝉast": 840,
      "grau": 841,
      "trans": 842,
      "minister": 843,
      "hęc": 844,
      "pontific": 845,
      "christi": 846,
      "mat": 847,
      "incip": 848,
      "deat": 849,
      "suā": 850,
      "ęccꝉa": 851,
      "ergo": 852,
      "ꝉa": 853,
      "cath": 854,
      "let": 855,
      "mut": 856,
      "tan": 857,
      "entię": 858,
      "ur̅": 859,
      "ulo": 860,
      "contin": 861,
      "abil": 862,
      "fili": 863,
      "missa": 864,
      "patr": 865,
      "sententia": 866,
      "abstinentia": 867,
      "diacon": 868,
      "uigili": 869,
      "lę": 870,
      "modo": 871,
      "uc": 872,
      "ual": 873,
      "atu": 874,
      "princip": 875,
      "uerunt": 876,
      "episcopos": 877,
      "ep̅os": 878,
      "auit": 879,
      "ęccꝉam": 880,
      "ito": 881,
      "Null": 882,
      "bon": 883,
      "beat": 884,
      "cord": 885,
      "fug": 886,
      "galli": 887,
      "hi": 888,
      "pn": 889,
      "pur": 890,
      "sū": 891,
      "xta": 892,
      "erunt": 893,
      "secun": 894,
      "succ": 895,
      "uid": 896,
      "uenerit": 897,
      "poss": 898,
      "minime": 899,
      "genua": 900,
      "cunct": 901,
      "loco": 902,
      "eorū": 903,
      "itu": 904,
      "oris": 905,
      "coniug": 906,
      "dominica": 907,
      "missis": 908,
      "tempore": 909,
      "no": 910,
      "Ne": 911,
      "elig": 912,
      "hac": 913,
      "linqu": 914,
      "put": 915,
      "tti": 916,
      "xit": 917,
      "qual": 918,
      "relig": 919,
      "cotti": 920,
      "uers": 921,
      "unc": 922,
      "ep̅orū": 923,
      "elect": 924,
      "prob": 925,
      "placuit": 926,
      "oportet": 927,
      "spir": 928,
      "ministr": 929,
      "laic": 930,
      "roman": 931,
      "aduersus": 932,
      "do": 933,
      "lem": 934,
      "nic": 935,
      "ꝗd": 936,
      "epistol": 937,
      "dictis": 938,
      "p̄sum": 939,
      "scđ": 940,
      "pt̅": 941,
      "ament": 942,
      "Non": 943,
      "dū": 944,
      "iens": 945,
      "nol": 946,
      "pͥ": 947,
      "pest": 948,
      "qᷓ": 949,
      "serit": 950,
      "uac": 951,
      "ꝓb": 952,
      "erc": 953,
      "init": 954,
      "anath": 955,
      "autē": 956,
      "teris": 957,
      "regul": 958,
      "susp": 959,
      "cleric": 960,
      "pasch": 961,
      "silio": 962,
      "dioces": 963,
      "Id": 964,
      "ꝓpt̅": 965,
      "quic": 966,
      "enter": 967,
      "consecr": 968,
      "quir": 969,
      "ueniat": 970,
      "communic": 971,
      "sabbato": 972,
      "Sed": 973,
      "af": 974,
      "ceter": 975,
      "ire": 976,
      "mod": 977,
      "pub": 978,
      "ubi": 979,
      "inę": 980,
      "indic": 981,
      "esc": 982,
      "oribus": 983,
      "uta": 984,
      "cog": 985,
      "cogn": 986,
      "contra": 987,
      "uere": 988,
      "appell": 989,
      "eleg": 990,
      "asc": 991,
      "trad": 992,
      "plic": 993,
      "liceat": 994,
      "quasi": 995,
      "corrig": 996,
      "liber": 997,
      "cipiat": 998,
      "canonic": 999,
      "presum": 1000,
      "uolunt": 1001,
      "cibia": 1002,
      "public": 1003,
      "rę": 1004,
      "sa": 1005,
      "imp": 1006,
      "im᷒": 1007,
      "aliquid": 1008,
      "dicit": 1009,
      "c̅stitut": 1010,
      "pertin": 1011,
      "uide": 1012,
      "andum": 1013,
      "carn": 1014,
      "damn": 1015,
      "reuerentia": 1016,
      "xxx": 1017,
      "aus": 1018,
      "gere": 1019,
      "lex": 1020,
      "nihil": 1021,
      "po": 1022,
      "pen": 1023,
      "uimus": 1024,
      "eris": 1025,
      "infam": 1026,
      "endi": 1027,
      "iuxta": 1028,
      "arch": 1029,
      "ult": 1030,
      "aut̅": 1031,
      "exam": 1032,
      "agere": 1033,
      "habere": 1034,
      "nulla": 1035,
      "clę": 1036,
      "ciuitate": 1037,
      "tēp": 1038,
      "anathem": 1039,
      "mem": 1040,
      "og": 1041,
      "erum": 1042,
      "ino": 1043,
      "recipi": 1044,
      "endis": 1045,
      "ordine": 1046,
      "ensis": 1047,
      "cipere": 1048,
      "sanctorum": 1049,
      "Nullus": 1050,
      "ric": 1051,
      "Plac": 1052,
      "orē": 1053,
      "arg": 1054,
      "aria": 1055,
      "uitę": 1056,
      "uener": 1057,
      "dub": 1058,
      "decre": 1059,
      "ciuitat": 1060,
      "negot": 1061,
      "negleg": 1062,
      "loca": 1063,
      "quadragesima": 1064,
      "pulsus": 1065,
      "singul": 1066,
      "epistola": 1067,
      "cess": 1068,
      "le": 1069,
      "m̅": 1070,
      "atem": 1071,
      "itum": 1072,
      "quatu": 1073,
      "rebus": 1074,
      "imon": 1075,
      "sequ": 1076,
      "conf": 1077,
      "trib": 1078,
      "mitt": 1079,
      "quatuor": 1080,
      "epꝉa": 1081,
      "anti": 1082,
      "Con": 1083,
      "Ep": 1084,
      "bann": 1085,
      "eas": 1086,
      "fuerint": 1087,
      "flect": 1088,
      "lis": 1089,
      "pau": 1090,
      "past": 1091,
      "xim": 1092,
      "era": 1093,
      "ers": 1094,
      "amb": 1095,
      "accep": 1096,
      "conprouincia": 1097,
      "exist": 1098,
      "necesse": 1099,
      "iudicia": 1100,
      "facere": 1101,
      "nullatenus": 1102,
      "udin": 1103,
      "synodus": 1104,
      "senti": 1105,
      "metropolitanus": 1106,
      "forte": 1107,
      "festis": 1108,
      "uinci": 1109,
      "soluatur": 1110,
      "domad": 1111,
      "sensu": 1112,
      "nemo": 1113,
      "ieiuniorum": 1114,
      "secundum": 1115,
      "success": 1116,
      "do̅": 1117,
      "scđm": 1118,
      "iant": 1119,
      "na": 1120,
      "ꝑtin": 1121,
      "constit": 1122,
      "omodo": 1123,
      "aliter": 1124,
      "endus": 1125,
      "ordinatus": 1126,
      "doct": 1127,
      "praecip": 1128,
      "An": 1129,
      "fur": 1130,
      "ffer": 1131,
      "mar": 1132,
      "mal": 1133,
      "nde": 1134,
      "sens": 1135,
      "satis": 1136,
      "spon": 1137,
      "tot": 1138,
      "tibi": 1139,
      "uos": 1140,
      "uot": 1141,
      "xerit": 1142,
      "inu": 1143,
      "redi": 1144,
      "sex": 1145,
      "ibil": 1146,
      "uno": 1147,
      "sid": 1148,
      "ales": 1149,
      "alcibia": 1150,
      "ebdomad": 1151,
      "iudices": 1152,
      "dominicis": 1153,
      "grad": 1154,
      "sancta": 1155,
      "petr": 1156,
      "sc̅a": 1157,
      "tantum": 1158,
      "statuta": 1159,
      "absq": 1160,
      "absque": 1161,
      "purg": 1162,
      "her": 1163,
      "mens": 1164,
      "pere": 1165,
      "s̅": 1166,
      "ite": 1167,
      "usque": 1168,
      "sup": 1169,
      "alem": 1170,
      "andū": 1171,
      "duc": 1172,
      "legit": 1173,
      "libus": 1174,
      "primates": 1175,
      "soluat": 1176,
      "xp̅ian": 1177,
      "christian": 1178,
      "archi": 1179,
      "Au": 1180,
      "cut": 1181,
      "ierit": 1182,
      "nit": 1183,
      "oper": 1184,
      "pa": 1185,
      "t̅": 1186,
      "ue": 1187,
      "xiii": 1188,
      "eru": 1189,
      "inde": 1190,
      "atos": 1191,
      "quorum": 1192,
      "oniam": 1193,
      "lius": 1194,
      "dixit": 1195,
      "constr": 1196,
      "antes": 1197,
      "uniu": 1198,
      "dico": 1199,
      "dicensi": 1200,
      "oct": 1201,
      "tric": 1202,
      "plur": 1203,
      "omnia": 1204,
      "p̄cip": 1205,
      "dominus": 1206,
      "entiā": 1207,
      "respon": 1208,
      "opere": 1209,
      "sacerdotes": 1210,
      "scꝉ": 1211,
      "potestatis": 1212,
      "transi": 1213,
      "celebrari": 1214,
      "reliquis": 1215,
      "honore": 1216,
      "fecerit": 1217,
      "numer": 1218,
      "cathol": 1219,
      "lętan": 1220,
      "presumat": 1221,
      "ros": 1222,
      "tio": 1223,
      "usq": 1224,
      "unus": 1225,
      "eatur": 1226,
      "cumque": 1227,
      "om̅ib": 1228,
      "decr̅": 1229,
      "dn̅s": 1230,
      "ei᷒": 1231,
      "obseruatione": 1232,
      "form": 1233,
      "quadraginta": 1234,
      "populi": 1235,
      "asi": 1236,
      "cup": 1237,
      "eun": 1238,
      "euenerit": 1239,
      "fl": 1240,
      "iect": 1241,
      "lat": 1242,
      "mand": 1243,
      "ph": 1244,
      "pę": 1245,
      "rū": 1246,
      "sist": 1247,
      "isse": 1248,
      "itare": 1249,
      "itione": 1250,
      "usur": 1251,
      "iussu": 1252,
      "iuste": 1253,
      "exp": 1254,
      "excus": 1255,
      "debere": 1256,
      "p̄dic": 1257,
      "domino": 1258,
      "ille": 1259,
      "missas": 1260,
      "synodum": 1261,
      "annunt": 1262,
      "patres": 1263,
      "metropolitano": 1264,
      "curr": 1265,
      "obseruanda": 1266,
      "xviii": 1267,
      "uuln": 1268,
      "restit": 1269,
      "graue": 1270,
      "religionis": 1271,
      "cottidi": 1272,
      "Placuit": 1273,
      "Aureli": 1274,
      "eodem": 1275,
      "rex": 1276,
      "don": 1277,
      "err": 1278,
      "eric": 1279,
      "quib": 1280,
      "quant": 1281,
      "quomodo": 1282,
      "oni": 1283,
      "consu": 1284,
      "consilio": 1285,
      "quidem": 1286,
      "ationibus": 1287,
      "uenit": 1288,
      "Quo": 1289,
      "neq": 1290,
      "neque": 1291,
      "miseric": 1292,
      "praesum": 1293,
      "Ar": 1294,
      "Item": 1295,
      "ben": 1296,
      "hom": 1297,
      "lux": 1298,
      "merc": 1299,
      "tend": 1300,
      "itū": 1301,
      "quas": 1302,
      "onti": 1303,
      "enn": 1304,
      "eno": 1305,
      "essit": 1306,
      "ana": 1307,
      "ang": 1308,
      "icam": 1309,
      "lium": 1310,
      "deuot": 1311,
      "util": 1312,
      "eps": 1313,
      "iac": 1314,
      "enti": 1315,
      "impon": 1316,
      "col": 1317,
      "acced": 1318,
      "content": 1319,
      "ebit": 1320,
      "integ": 1321,
      "possunt": 1322,
      "iudicare": 1323,
      "regim": 1324,
      "suscep": 1325,
      "petro": 1326,
      "irr": 1327,
      "neglex": 1328,
      "tantū": 1329,
      "testes": 1330,
      "faciat": 1331,
      "facienda": 1332,
      "anathema": 1333,
      "memor": 1334,
      "Epis": 1335,
      "legitim": 1336,
      "luxur": 1337,
      "Nam": 1338,
      "innoc": 1339,
      "ias": 1340,
      "suum": 1341,
      "diem": 1342,
      "congreg": 1343,
      "aliam": 1344,
      "person": 1345,
      "cūq": 1346,
      "tēpore": 1347,
      "dn̅o": 1348,
      "xlm": 1349,
      "praedic": 1350,
      "alicuius": 1351,
      "misericord": 1352,
      "uo": 1353,
      "Cum": 1354,
      "aeris": 1355,
      "eli": 1356,
      "eantur": 1357,
      "fun": 1358,
      "ger": 1359,
      "iđ": 1360,
      "muli": 1361,
      "of": 1362,
      "pac": 1363,
      "uę": 1364,
      "isti": 1365,
      "erent": 1366,
      "ind": 1367,
      "inas": 1368,
      "institut": 1369,
      "useb": 1370,
      "enit": 1371,
      "ori": 1372,
      "orii": 1373,
      "delinqu": 1374,
      "refect": 1375,
      "ent̅": 1376,
      "entum": 1377,
      "empl": 1378,
      "aret": 1379,
      "ulter": 1380,
      "unum": 1381,
      "c̅tin": 1382,
      "ileg": 1383,
      "ilentia": 1384,
      "uidu": 1385,
      "ieiunare": 1386,
      "fiant": 1387,
      "ordinis": 1388,
      "ordinare": 1389,
      "ordinari": 1390,
      "andus": 1391,
      "Quę": 1392,
      "Quia": 1393,
      "iudicium": 1394,
      "omnib": 1395,
      "parasc": 1396,
      "distric": 1397,
      "synodū": 1398,
      "causam": 1399,
      "sacerdotum": 1400,
      "feria": 1401,
      "corpor": 1402,
      "libet": 1403,
      "tēpor": 1404,
      "ep̅oꝝ": 1405,
      "cęl": 1406,
      "auctoritas": 1407,
      "desid": 1408,
      "eue": 1409,
      "tentu": 1410,
      "lites": 1411,
      "elemosina": 1412,
      "alicia": 1413,
      "abilis": 1414,
      "cunctis": 1415,
      "pestilentia": 1416,
      "paschę": 1417,
      "canonice": 1418,
      "uoluntate": 1419,
      "banno": 1420,
      "constring": 1421,
      "uulnera": 1422,
      "bene": 1423,
      "parasceue": 1424,
      "c̅cilio": 1425,
      "cer": 1426,
      "dit": 1427,
      "ios": 1428,
      "nū": 1429,
      "ram": 1430,
      "tā": 1431,
      "uobis": 1432,
      "atē": 1433,
      "onis": 1434,
      "sedem": 1435,
      "consenti": 1436,
      "adic": 1437,
      "ecun": 1438,
      "aliꝗd": 1439,
      "exempl": 1440,
      "sollem": 1441,
      "subscrip": 1442,
      "grat": 1443,
      "suscipi": 1444,
      "tam̅": 1445,
      "ioribus": 1446,
      "sacrament": 1447,
      "presbiteri": 1448,
      "saec": 1449,
      "Episcop": 1450,
      "ER": 1451,
      "Ecc": 1452,
      "Per": 1453,
      "auerat": 1454,
      "din": 1455,
      "ign": 1456,
      "ifest": 1457,
      "mol": 1458,
      "nomin": 1459,
      "pe": 1460,
      "ru": 1461,
      "so": 1462,
      "sp̅": 1463,
      "inere": 1464,
      "indu": 1465,
      "at᷒": 1466,
      "iti": 1467,
      "ena": 1468,
      "eta": 1469,
      "ans": 1470,
      "angr": 1471,
      "reman": 1472,
      "recep": 1473,
      "ach": 1474,
      "suas": 1475,
      "differ": 1476,
      "ario": 1477,
      "ulus": 1478,
      "ultra": 1479,
      "una": 1480,
      "abili": 1481,
      "c̅ꝓuincia": 1482,
      "exor": 1483,
      "exig": 1484,
      "itates": 1485,
      "tro": 1486,
      "plus": 1487,
      "sacro": 1488,
      "omnium": 1489,
      "inceps": 1490,
      "solum": 1491,
      "illud": 1492,
      "misso": 1493,
      "missarum": 1494,
      "fric": 1495,
      "discip": 1496,
      "accusatus": 1497,
      "nosc": 1498,
      "ueniant": 1499,
      "sancti": 1500,
      "causę": 1501,
      "isto": 1502,
      "scand": 1503,
      "viiii": 1504,
      "Inter": 1505,
      "metropolitani": 1506,
      "curet": 1507,
      "fratr": 1508,
      "fratern": 1509,
      "communione": 1510,
      "cęteris": 1511,
      "placet": 1512,
      "clericis": 1513,
      "postea": 1514,
      "noctis": 1515,
      "recte": 1516,
      "ipsius": 1517,
      "natalicia": 1518,
      "litter": 1519,
      "hanc": 1520,
      "peccatis": 1521,
      "p̄sumat": 1522,
      "publicę": 1523,
      "impedi": 1524,
      "examin": 1525,
      "uincię": 1526,
      "Aurelian": 1527,
      "mulier": 1528,
      "Ecce": 1529,
      "angrensi": 1530,
      "CI": 1531,
      "Sim": 1532,
      "adi": 1533,
      "fut": 1534,
      "odi": 1535,
      "ꝑson": 1536,
      "umque": 1537,
      "ūq": 1538,
      "prandi": 1539,
      "abat": 1540,
      "dicta": 1541,
      "c̅tra": 1542,
      "c̅iug": 1543,
      "ebat": 1544,
      "eadē": 1545,
      "dominic": 1546,
      "missam": 1547,
      "disci": 1548,
      "eiusdem": 1549,
      "sanctę": 1550,
      "ferant": 1551,
      "sc̅ę": 1552,
      "om̅a": 1553,
      "fratres": 1554,
      "eccles": 1555,
      "pƀri": 1556,
      "cōmunic": 1557,
      "Interrog": 1558,
      "prandii": 1559,
      "he": 1560,
      "cipiunt": 1561,
      "Euseb": 1562,
      "MA": 1563,
      "Mog": 1564,
      "Nec": 1565,
      "Unde": 1566,
      "bre": 1567,
      "bap": 1568,
      "den": 1569,
      "dim": 1570,
      "fem": 1571,
      "fuer": 1572,
      "huc": 1573,
      "iet": 1574,
      "ll": 1575,
      "nul": 1576,
      "not": 1577,
      "pan": 1578,
      "pserit": 1579,
      "tod": 1580,
      "talis": 1581,
      "uͦ": 1582,
      "inim": 1583,
      "insi": 1584,
      "inensi": 1585,
      "instr": 1586,
      "quatenus": 1587,
      "quoniam": 1588,
      "ich": 1589,
      "entib": 1590,
      "ost": 1591,
      "seu": 1592,
      "sede": 1593,
      "accipiat": 1594,
      "prę": 1595,
      "suos": 1596,
      "diffic": 1597,
      "arb": 1598,
      "ulerit": 1599,
      "conseru": 1600,
      "contemp": 1601,
      "conuent": 1602,
      "adulter": 1603,
      "adhuc": 1604,
      "ioni": 1605,
      "uera": 1606,
      "absol": 1607,
      "stant": 1608,
      "dici": 1609,
      "dicens": 1610,
      "extra": 1611,
      "iliter": 1612,
      "tri": 1613,
      "tres": 1614,
      "debit": 1615,
      "uita": 1616,
      "ordinetur": 1617,
      "iudiciū": 1618,
      "custod": 1619,
      "ibidem": 1620,
      "ęcclesiis": 1621,
      "duob": 1622,
      "serint": 1623,
      "sollic": 1624,
      "nullo": 1625,
      "cast": 1626,
      "subtra": 1627,
      "eoꝝ": 1628,
      "reseru": 1629,
      "causas": 1630,
      "petierit": 1631,
      "sacerdotibus": 1632,
      "ferre": 1633,
      "patrum": 1634,
      "sc̅i": 1635,
      "toll": 1636,
      "alteri": 1637,
      "canonum": 1638,
      "crimine": 1639,
      "qͥs": 1640,
      "uoluerint": 1641,
      "decreta": 1642,
      "monast": 1643,
      "spect": 1644,
      "actus": 1645,
      "famili": 1646,
      "recta": 1647,
      "puls": 1648,
      "animę": 1649,
      "cōmunione": 1650,
      "human": 1651,
      "uiuente": 1652,
      "qualitas": 1653,
      "laicus": 1654,
      "udinem": 1655,
      "gradus": 1656,
      "ontiensi": 1657,
      "neglexerit": 1658,
      "delinquentis": 1659,
      "saecul": 1660,
      "molest": 1661,
      "discipl": 1662,
      "baptis": 1663,
      "Ep̅": 1664,
      "gat": 1665,
      "hend": 1666,
      "nam": 1667,
      "ou": 1668,
      "pens": 1669,
      "tit": 1670,
      "inuen": 1671,
      "liū": 1672,
      "reb": 1673,
      "reper": 1674,
      "entium": 1675,
      "urb": 1676,
      "suū": 1677,
      "consensu": 1678,
      "alium": 1679,
      "aliā": 1680,
      "excommunic": 1681,
      "trac": 1682,
      "ationib": 1683,
      "cret": 1684,
      "ipsum": 1685,
      "regis": 1686,
      "sancto": 1687,
      "quoque": 1688,
      "modi": 1689,
      "nr̅i": 1690,
      "tempus": 1691,
      "mittat": 1692,
      "nostri": 1693,
      "xp̅i": 1694,
      "pƀr": 1695,
      "fr̅s": 1696,
      "Ad": 1697,
      "Car": 1698,
      "Greg": 1699,
      "Hi": 1700,
      "Itē": 1701,
      "La": 1702,
      "Sp": 1703,
      "St": 1704,
      "cre": 1705,
      "dest": 1706,
      "dere": 1707,
      "dare": 1708,
      "diss": 1709,
      "equ": 1710,
      "fast": 1711,
      "fuisse": 1712,
      "lu": 1713,
      "laud": 1714,
      "merit": 1715,
      "ppe": 1716,
      "qͦ": 1717,
      "ration": 1718,
      "sor": 1719,
      "tic": 1720,
      "tali": 1721,
      "tag": 1722,
      "uct": 1723,
      "uill": 1724,
      "inam": 1725,
      "intra": 1726,
      "quando": 1727,
      "iub": 1728,
      "iar": 1729,
      "imi": 1730,
      "am̅": 1731,
      "secut": 1732,
      "ares": 1733,
      "ueris": 1734,
      "unct": 1735,
      "sign": 1736,
      "quidē": 1737,
      "alensi": 1738,
      "aliud": 1739,
      "dicimus": 1740,
      "dicente": 1741,
      "oceno": 1742,
      "elicis": 1743,
      "ilitate": 1744,
      "termin": 1745,
      "necessit": 1746,
      "ordinet": 1747,
      "ordinationes": 1748,
      "custo": 1749,
      "omni": 1750,
      "uellet": 1751,
      "habent": 1752,
      "habuerit": 1753,
      "solū": 1754,
      "discret": 1755,
      "subiac": 1756,
      "udine": 1757,
      "gra": 1758,
      "causis": 1759,
      "petri": 1760,
      "sc̅orū": 1761,
      "legis": 1762,
      "sententiam": 1763,
      "manifest": 1764,
      "ciuitatis": 1765,
      "primas": 1766,
      "dampn": 1767,
      "uoluerit": 1768,
      "parroechię": 1769,
      "cęna": 1770,
      "diuina": 1771,
      "necessitat": 1772,
      "abstinere": 1773,
      "testimon": 1774,
      "scriptur": 1775,
      "igitur": 1776,
      "rogation": 1777,
      "plebe": 1778,
      "plebes": 1779,
      "xviiii": 1780,
      "quadragesimę": 1781,
      "officio": 1782,
      "xlma": 1783,
      "infirmitas": 1784,
      "iurg": 1785,
      "maiore": 1786,
      "discuti": 1787,
      "diligere": 1788,
      "accusatores": 1789,
      "uesper": 1790,
      "cathed": 1791,
      "ualeat": 1792,
      "cordis": 1793,
      "eligere": 1794,
      "poenit": 1795,
      "sponte": 1796,
      "peregr": 1797,
      "uniuers": 1798,
      "octau": 1799,
      "lętania": 1800,
      "pęnit": 1801,
      "expoli": 1802,
      "xlmę": 1803,
      "fratribus": 1804,
      "futur": 1805,
      "Mogontiensi": 1806,
      "absolut": 1807,
      "Spalensi": 1808,
      "necessitas": 1809,
      "custodi": 1810,
      "habito": 1811,
      "eodē": 1812,
      "ade": 1813,
      "drag": 1814,
      "fre": 1815,
      "mi": 1816,
      "mul": 1817,
      "": 1818,
      "erū": 1819,
      "eretur": 1820,
      "anum": 1821,
      "icā": 1822,
      "rep̄": 1823,
      "reconcili": 1824,
      "ammon": 1825,
      "diiudic": 1826,
      "emend": 1827,
      "incur": 1828,
      "dominum": 1829,
      "tempor": 1830,
      "accusat": 1831,
      "sc̅o": 1832,
      "summ": 1833,
      "apostolica": 1834,
      "locum": 1835,
      "temporum": 1836,
      "huiusmodi": 1837,
      "priuileg": 1838,
      "semper": 1839,
      "pauper": 1840,
      "menses": 1841,
      "fricano": 1842,
      "Sint": 1843,
      "ait": 1844,
      "adeat": 1845,
      "bib": 1846,
      "bol": 1847,
      "basi": 1848,
      "cal": 1849,
      "cinere": 1850,
      "derit": 1851,
      "fiunt": 1852,
      "fini": 1853,
      "hic": 1854,
      "hens": 1855,
      "hunc": 1856,
      "ideo": 1857,
      "lau": 1858,
      "ling": 1859,
      "leu": 1860,
      "larg": 1861,
      "mea": 1862,
      "medi": 1863,
      "male": 1864,
      "mult": 1865,
      "nia": 1866,
      "pu": 1867,
      "pag": 1868,
      "rap": 1869,
      "rab": 1870,
      "rip": 1871,
      "tione": 1872,
      "xi": 1873,
      "ins": 1874,
      "inā": 1875,
      "inuit": 1876,
      "anū": 1877,
      "orib": 1878,
      "iciunt": 1879,
      "depos": 1880,
      "rē": 1881,
      "reuel": 1882,
      "iura": 1883,
      "osum": 1884,
      "impos": 1885,
      "amp": 1886,
      "sedi": 1887,
      "aclet": 1888,
      "em᷒": 1889,
      "ariter": 1890,
      "ardicensi": 1891,
      "conuers": 1892,
      "ecti": 1893,
      "uer̅": 1894,
      "unū": 1895,
      "abit": 1896,
      "cio": 1897,
      "estim": 1898,
      "stu": 1899,
      "alib": 1900,
      "alius": 1901,
      "dicat": 1902,
      "occ": 1903,
      "occid": 1904,
      "asse": 1905,
      "expon": 1906,
      "illic": 1907,
      "endę": 1908,
      "ieiunet": 1909,
      "ieiunauerit": 1910,
      "egrit": 1911,
      "plem": 1912,
      "pleta": 1913,
      "agant": 1914,
      "ordinatione": 1915,
      "ordinatio": 1916,
      "ordinandus": 1917,
      "sacri": 1918,
      "omnim": 1919,
      "habeant": 1920,
      "habuerint": 1921,
      "licentia": 1922,
      "illa": 1923,
      "illo": 1924,
      "nullę": 1925,
      "tauerit": 1926,
      "ueniri": 1927,
      "potius": 1928,
      "uisibi": 1929,
      "causā": 1930,
      "sacerdotū": 1931,
      "decern": 1932,
      "quo̅": 1933,
      "iores": 1934,
      "papę": 1935,
      "manu": 1936,
      "viii": 1937,
      "biendo": 1938,
      "biduo": 1939,
      "moy": 1940,
      "parroechiam": 1941,
      "obseruari": 1942,
      "transe": 1943,
      "aposto": 1944,
      "fornic": 1945,
      "placita": 1946,
      "apꝉi": 1947,
      "esima": 1948,
      "sacratis": 1949,
      "cibo": 1950,
      "spac": 1951,
      "dignitate": 1952,
      "abstinentię": 1953,
      "fidei": 1954,
      "fidelis": 1955,
      "ipsos": 1956,
      "culp": 1957,
      "sale": 1958,
      "salu": 1959,
      "salut": 1960,
      "populo": 1961,
      "illius": 1962,
      "detr": 1963,
      "olim": 1964,
      "septem": 1965,
      "simul": 1966,
      "homines": 1967,
      "infirmis": 1968,
      "elemosinis": 1969,
      "uulg": 1970,
      "decimas": 1971,
      "hora": 1972,
      "restitu": 1973,
      "circa": 1974,
      "uigiliis": 1975,
      "principis": 1976,
      "beato": 1977,
      "posset": 1978,
      "possess": 1979,
      "cottidie": 1980,
      "electione": 1981,
      "noluerit": 1982,
      "pascha": 1983,
      "diocesis": 1984,
      "quicquid": 1985,
      "inęqualitas": 1986,
      "indictum": 1987,
      "elegerit": 1988,
      "uidelicet": 1989,
      "clęro": 1990,
      "neglegunt": 1991,
      "singulos": 1992,
      "furt": 1993,
      "alcibiade": 1994,
      "alcibiades": 1995,
      "transig": 1996,
      "eundem": 1997,
      "restitut": 1998,
      "merce": 1999,
      "contentiones": 2000,
      "luxurię": 2001,
      "induti": 2002,
      "refectione": 2003,
      "cęlebr": 2004,
      "litteras": 2005,
      "spectu": 2006,
      "Cartag": 2007,
      "Step": 2008,
      "iarch": 2009,
      "iurgia": 2010,
      "octauas": 2011,
      "frequ": 2012,
      "basilic": 2013,
      "acleti": 2014,
      "apostoli": 2015,
      "Al": 2016,
      "da": 2017,
      "dat": 2018,
      "gl": 2019,
      "ni": 2020,
      "tere": 2021,
      "titul": 2022,
      "onensi": 2023,
      "ensem": 2024,
      "deum": 2025,
      "prau": 2026,
      "supr": 2027,
      "arent": 2028,
      "arium": 2029,
      "contem": 2030,
      "quippe": 2031,
      "alit̅": 2032,
      "aliū": 2033,
      "c̅stit": 2034,
      "c̅secr": 2035,
      "exosum": 2036,
      "terrę": 2037,
      "prohib": 2038,
      "p̄sū": 2039,
      "missā": 2040,
      "missarū": 2041,
      "quoq": 2042,
      "canones": 2043,
      "crimen": 2044,
      "apꝉica": 2045,
      "dignus": 2046,
      "propria": 2047,
      "officium": 2048,
      "numquam": 2049,
      "semꝑ": 2050,
      "pontificem": 2051,
      "diaconus": 2052,
      "spiritu": 2053,
      "mittere": 2054,
      "nūquā": 2055,
      "glor": 2056,
      "Boni": 2057,
      "Ip": 2058,
      "Le": 2059,
      "Mel": 2060,
      "Osi": 2061,
      "Post": 2062,
      "Sin": 2063,
      "bat": 2064,
      "cu": 2065,
      "cet": 2066,
      "caut": 2067,
      "dol": 2068,
      "ful": 2069,
      "fal": 2070,
      "gest": 2071,
      "gangrensi": 2072,
      "hr": 2073,
      "pie": 2074,
      "pare": 2075,
      "sione": 2076,
      "tor": 2077,
      "tales": 2078,
      "uet": 2079,
      "uar": 2080,
      "xv": 2081,
      "ędi": 2082,
      "ꝓpͥ": 2083,
      "isc": 2084,
      "isi": 2085,
      "eron": 2086,
      "erant": 2087,
      "atissim": 2088,
      "itionem": 2089,
      "quot": 2090,
      "icorum": 2091,
      "deus": 2092,
      "deinceps": 2093,
      "osc": 2094,
      "imis": 2095,
      "impl": 2096,
      "coactus": 2097,
      "prom": 2098,
      "primus": 2099,
      "dierum": 2100,
      "ultat": 2101,
      "antea": 2102,
      "ionibus": 2103,
      "unde": 2104,
      "stud": 2105,
      "alio": 2106,
      "alios": 2107,
      "elli": 2108,
      "c̅f": 2109,
      "exhib": 2110,
      "peric": 2111,
      "endos": 2112,
      "iohan": 2113,
      "uiol": 2114,
      "egr": 2115,
      "quisque": 2116,
      "fiat": 2117,
      "obtentu": 2118,
      "isset": 2119,
      "ordinati": 2120,
      "andis": 2121,
      "posse": 2122,
      "Qua": 2123,
      "tioceno": 2124,
      "omniū": 2125,
      "habuit": 2126,
      "facultat": 2127,
      "illos": 2128,
      "missum": 2129,
      "missos": 2130,
      "concilium": 2131,
      "dispon": 2132,
      "accusare": 2133,
      "accusari": 2134,
      "accusatis": 2135,
      "nequ": 2136,
      "nequa": 2137,
      "sang": 2138,
      "sacerdos": 2139,
      "sanctum": 2140,
      "ida": 2141,
      "sacerdote": 2142,
      "sacerdotis": 2143,
      "coram": 2144,
      "corpore": 2145,
      "portare": 2146,
      "sente": 2147,
      "manus": 2148,
      "ciuitatem": 2149,
      "ciuitatē": 2150,
      "carnis": 2151,
      "caritatis": 2152,
      "uocatus": 2153,
      "uocatione": 2154,
      "atores": 2155,
      "potestatem": 2156,
      "parroechiā": 2157,
      "commune": 2158,
      "uice": 2159,
      "cęter": 2160,
      "docere": 2161,
      "diuers": 2162,
      "clero": 2163,
      "apostolorum": 2164,
      "festiu": 2165,
      "ipso": 2166,
      "ipsis": 2167,
      "loci": 2168,
      "popul": 2169,
      "populis": 2170,
      "proprium": 2171,
      "honor": 2172,
      "constituta": 2173,
      "constitutis": 2174,
      "sepe": 2175,
      "septim": 2176,
      "proph": 2177,
      "caput": 2178,
      "capitis": 2179,
      "defini": 2180,
      "turb": 2181,
      "aliena": 2182,
      "parroechias": 2183,
      "fr̅ib": 2184,
      "uespertin": 2185,
      "filius": 2186,
      "patriarch": 2187,
      "diaconi": 2188,
      "beatus": 2189,
      "galliarum": 2190,
      "qᷓdrag": 2191,
      "regulę": 2192,
      "suspect": 2193,
      "aff": 2194,
      "cognosc": 2195,
      "tradic": 2196,
      "liberii": 2197,
      "ausus": 2198,
      "infames": 2199,
      "ueneratione": 2200,
      "decreuimus": 2201,
      "ximo": 2202,
      "acceperit": 2203,
      "udinē": 2204,
      "Antioceno": 2205,
      "ebdomadę": 2206,
      "plures": 2207,
      "numero": 2208,
      "consul": 2209,
      "legitima": 2210,
      "off": 2211,
      "corporis": 2212,
      "constringatur": 2213,
      "benedic": 2214,
      "dinosc": 2215,
      "scandali": 2216,
      "ecclesia": 2217,
      "femina": 2218,
      "nulli": 2219,
      "insidi": 2220,
      "duobus": 2221,
      "sollicit": 2222,
      "monaster": 2223,
      "Lao": 2224,
      "amplius": 2225,
      "occas": 2226,
      "transeat": 2227,
      "saluator": 2228,
      "Osius": 2229,
      "Nā": 2230,
      "cau": 2231,
      "ies": 2232,
      "lē": 2233,
      "nunt": 2234,
      "rā": 2235,
      "tunc": 2236,
      "ꝓhib": 2237,
      "quorū": 2238,
      "esum": 2239,
      "repre": 2240,
      "entiss": 2241,
      "osis": 2242,
      "am᷒": 2243,
      "amare": 2244,
      "sequi": 2245,
      "confirm": 2246,
      "concord": 2247,
      "conueniat": 2248,
      "conspectu": 2249,
      "alē": 2250,
      "ep̅orum": 2251,
      "c̅silio": 2252,
      "perpetr": 2253,
      "tribus": 2254,
      "tract": 2255,
      "ipot": 2256,
      "agat": 2257,
      "omnino": 2258,
      "p̄s": 2259,
      "comm": 2260,
      "minus": 2261,
      "sacerdotib": 2262,
      "sc̅m": 2263,
      "dn̅m": 2264,
      "mou": 2265,
      "ipsū": 2266,
      "loqu": 2267,
      "honorem": 2268,
      "uestrę": 2269,
      "officiū": 2270,
      "audiat": 2271,
      "accusatoribus": 2272,
      "contingere": 2273,
      "coniugibus": 2274,
      "initium": 2275,
      "cogno": 2276,
      "tēpus": 2277,
      "negotiis": 2278,
      "confess": 2279,
      "flectamus": 2280,
      "praecipuis": 2281,
      "p̄cipuis": 2282,
      "subscripsit": 2283,
      "gratia": 2284,
      "Aurelianensi": 2285,
      "supradic": 2286,
      "IB": 2287,
      "IN": 2288,
      "LIB": 2289,
      "PI": 2290,
      "yr": 2291,
      "hann": 2292,
      "Ab": 2293,
      "Ag": 2294,
      "Acc": 2295,
      "Cū": 2296,
      "ES": 2297,
      "Iu": 2298,
      "Int": 2299,
      "Nem": 2300,
      "Nihil": 2301,
      "Om": 2302,
      "Pro": 2303,
      "Sardicensi": 2304,
      "bis": 2305,
      "credi": 2306,
      "datis": 2307,
      "ds̅": 2308,
      "ef": 2309,
      "fex": 2310,
      "fuerat": 2311,
      "gent": 2312,
      "iv": 2313,
      "iensi": 2314,
      "lon": 2315,
      "lxx": 2316,
      "lata": 2317,
      "mali": 2318,
      "more": 2319,
      "nā": 2320,
      "nob": 2321,
      "pol": 2322,
      "pend": 2323,
      "patione": 2324,
      "pecun": 2325,
      "sin": 2326,
      "tę": 2327,
      "tare": 2328,
      "tine": 2329,
      "xii": 2330,
      "xime": 2331,
      "ęc": 2332,
      "ꝓp": 2333,
      "ꝓph": 2334,
      "iste": 2335,
      "inob": 2336,
      "inlic": 2337,
      "infr": 2338,
      "inpon": 2339,
      "inuic": 2340,
      "inuent": 2341,
      "inquir": 2342,
      "iniuste": 2343,
      "itia": 2344,
      "itionē": 2345,
      "quar": 2346,
      "etvi": 2347,
      "esfurt": 2348,
      "annis": 2349,
      "annos": 2350,
      "orant": 2351,
      "decl": 2352,
      "rec": 2353,
      "repet": 2354,
      "rector": 2355,
      "relinqu": 2356,
      "iure": 2357,
      "iuris": 2358,
      "secur": 2359,
      "acul": 2360,
      "accipere": 2361,
      "prior": 2362,
      "dil": 2363,
      "dię": 2364,
      "arius": 2365,
      "ulit": 2366,
      "conueni": 2367,
      "consili": 2368,
      "antium": 2369,
      "ionib": 2370,
      "absit": 2371,
      "st̅": 2372,
      "stin": 2373,
      "alii": 2374,
      "aliquo": 2375,
      "alibi": 2376,
      "alibus": 2377,
      "aliquando": 2378,
      "dictum": 2379,
      "c̅uers": 2380,
      "exe": 2381,
      "expulsus": 2382,
      "endant": 2383,
      "uiri": 2384,
      "ebri": 2385,
      "ordo": 2386,
      "quisq": 2387,
      "plen": 2388,
      "uendi": 2389,
      "uendic": 2390,
      "posc": 2391,
      "poster": 2392,
      "positis": 2393,
      "possint": 2394,
      "ibidē": 2395,
      "p̄cep": 2396,
      "habet": 2397,
      "duxerit": 2398,
      "facii": 2399,
      "facult": 2400,
      "dissid": 2401,
      "sustent": 2402,
      "munus": 2403,
      "potuerit": 2404,
      "resp": 2405,
      "resid": 2406,
      "chr": 2407,
      "sanctific": 2408,
      "ferat": 2409,
      "corru": 2410,
      "sumus": 2411,
      "ciuitas": 2412,
      "atiz": 2413,
      "uocari": 2414,
      "maxime": 2415,
      "prima": 2416,
      "canonica": 2417,
      "modic": 2418,
      "potestas": 2419,
      "parroechiis": 2420,
      "uicin": 2421,
      "scrut": 2422,
      "monach": 2423,
      "doctr": 2424,
      "gener": 2425,
      "sacratissim": 2426,
      "apostolus": 2427,
      "edire": 2428,
      "tumat": 2429,
      "iugum": 2430,
      "ipsa": 2431,
      "culpa": 2432,
      "nr̅o": 2433,
      "locis": 2434,
      "salua": 2435,
      "diabol": 2436,
      "scripta": 2437,
      "detin": 2438,
      "euad": 2439,
      "praecep": 2440,
      "nostro": 2441,
      "nostrum": 2442,
      "passione": 2443,
      "hominis": 2444,
      "officiis": 2445,
      "fecisse": 2446,
      "gregorii": 2447,
      "tenent": 2448,
      "litteris": 2449,
      "pontifex": 2450,
      "retr": 2451,
      "uiros": 2452,
      "peccata": 2453,
      "iani": 2454,
      "ęcclesiasticis": 2455,
      "hosp": 2456,
      "host": 2457,
      "rite": 2458,
      "ieiuniorū": 2459,
      "ęccꝉasticis": 2460,
      "mutatione": 2461,
      "filii": 2462,
      "patrū": 2463,
      "sententiā": 2464,
      "bona": 2465,
      "pnia": 2466,
      "romanę": 2467,
      "regulariter": 2468,
      "ceteris": 2469,
      "indictū": 2470,
      "escit": 2471,
      "cogitat": 2472,
      "dubitat": 2473,
      "decreuit": 2474,
      "ciuitates": 2475,
      "ciuitatibus": 2476,
      "conprouincialibus": 2477,
      "existim": 2478,
      "supplem": 2479,
      "christianus": 2480,
      "cupid": 2481,
      "eundē": 2482,
      "donec": 2483,
      "consuet": 2484,
      "homo": 2485,
      "homic": 2486,
      "imponit": 2487,
      "irrita": 2488,
      "innocentes": 2489,
      "districta": 2490,
      "nomine": 2491,
      "soci": 2492,
      "impedierit": 2493,
      "dominicos": 2494,
      "dimit": 2495,
      "inimici": 2496,
      "instruct": 2497,
      "subtrah": 2498,
      "molestia": 2499,
      "registro": 2500,
      "creatur": 2501,
      "fastu": 2502,
      "pugn": 2503,
      "Cartaginensi": 2504,
      "Stephan": 2505,
      "Laodicensi": 2506,
      "Accus": 2507,
      "Nemo": 2508,
      "long": 2509,
      "tineant": 2510,
      "facultas": 2511,
      "corrupt": 2512,
      "PIT": 2513,
      "xvi": 2514,
      "Io": 2515,
      "dm̅": 2516,
      "eam": 2517,
      "git": 2518,
      "iorum": 2519,
      "mus": 2520,
      "nes": 2521,
      "nensi": 2522,
      "rim": 2523,
      "rerum": 2524,
      "rimon": 2525,
      "ses": 2526,
      "uat": 2527,
      "ꝓuincię": 2528,
      "erog": 2529,
      "anus": 2530,
      "requir": 2531,
      "enta": 2532,
      "entū": 2533,
      "entem": 2534,
      "entē": 2535,
      "imur": 2536,
      "sec": 2537,
      "sedē": 2538,
      "acr": 2539,
      "aretur": 2540,
      "arentur": 2541,
      "conuer": 2542,
      "consci": 2543,
      "concess": 2544,
      "antem": 2545,
      "adesse": 2546,
      "quidam": 2547,
      "episcopatum": 2548,
      "c̅greg": 2549,
      "perpet": 2550,
      "prouincię": 2551,
      "ebatur": 2552,
      "debemus": 2553,
      "fidem": 2554,
      "uitam": 2555,
      "iudicet": 2556,
      "iudicatus": 2557,
      "omnis": 2558,
      "habemus": 2559,
      "habeantur": 2560,
      "pariter": 2561,
      "illum": 2562,
      "reg̅": 2563,
      "accusationem": 2564,
      "gr̅": 2565,
      "suscipiat": 2566,
      "ueniens": 2567,
      "pati": 2568,
      "sc̅oꝝ": 2569,
      "sic̅": 2570,
      "primę": 2571,
      "qͥa": 2572,
      "frat̅": 2573,
      "obseruent": 2574,
      "apꝉicę": 2575,
      "apostolicę": 2576,
      "rah": 2577,
      "nr̅m": 2578,
      "proprio": 2579,
      "constitutum": 2580,
      "criminibus": 2581,
      "igit": 2582,
      "cedat": 2583,
      "defend": 2584,
      "dān": 2585,
      "ęcclesiastic": 2586,
      "audiatur": 2587,
      "ęccꝉastic": 2588,
      "ur̅ę": 2589,
      "coniugati": 2590,
      "appellet": 2591,
      "c̅stitutis": 2592,
      "supᷓ": 2593,
      "xp̅ianus": 2594,
      "tēporū": 2595,
      "sacramenta": 2596,
      "rogationum": 2597,
      "prophet": 2598,
      "INCI": 2599,
      "ricus": 2600,
      "antioc": 2601,
      "Ait": 2602,
      "Chr": 2603,
      "DE": 2604,
      "Dam": 2605,
      "Felicis": 2606,
      "His": 2607,
      "Ideo": 2608,
      "Sol": 2609,
      "Sil": 2610,
      "Stat": 2611,
      "Vnde": 2612,
      "aur": 2613,
      "bo": 2614,
      "bell": 2615,
      "cant": 2616,
      "care": 2617,
      "cub": 2618,
      "dot": 2619,
      "densi": 2620,
      "data": 2621,
      "effic": 2622,
      "fati": 2623,
      "gerit": 2624,
      "gub": 2625,
      "huic": 2626,
      "ient": 2627,
      "lab": 2628,
      "lup": 2629,
      "mih": 2630,
      "macul": 2631,
      "natur": 2632,
      "pus": 2633,
      "ped": 2634,
      "palli": 2635,
      "rat": 2636,
      "ria": 2637,
      "rici": 2638,
      "sę": 2639,
      "tiu": 2640,
      "tale": 2641,
      "talia": 2642,
      "xer": 2643,
      "xili": 2644,
      "ęter": 2645,
      "ꝉam": 2646,
      "ꝓf": 2647,
      "ista": 2648,
      "eros": 2649,
      "inf": 2650,
      "inius": 2651,
      "infl": 2652,
      "inueniri": 2653,
      "atę": 2654,
      "atorum": 2655,
      "itando": 2656,
      "ustin": 2657,
      "quin": 2658,
      "quac": 2659,
      "quere": 2660,
      "quoc": 2661,
      "onus": 2662,
      "enii": 2663,
      "eniant": 2664,
      "orent": 2665,
      "orius": 2666,
      "orio": 2667,
      "orare": 2668,
      "orationis": 2669,
      "lim": 2670,
      "deant": 2671,
      "rel": 2672,
      "utra": 2673,
      "iare": 2674,
      "iaco": 2675,
      "imenii": 2676,
      "secul": 2677,
      "accipiunt": 2678,
      "prud": 2679,
      "suet": 2680,
      "supra": 2681,
      "suffic": 2682,
      "dig": 2683,
      "dilect": 2684,
      "dilac": 2685,
      "dierū": 2686,
      "ard": 2687,
      "arm": 2688,
      "ariū": 2689,
      "conuoc": 2690,
      "contradic": 2691,
      "administr": 2692,
      "apic": 2693,
      "appar": 2694,
      "undi": 2695,
      "cilic": 2696,
      "omag": 2697,
      "stim": 2698,
      "episcopatus": 2699,
      "aliquod": 2700,
      "aliquem": 2701,
      "dicebat": 2702,
      "occurr": 2703,
      "asser": 2704,
      "excep": 2705,
      "exerc": 2706,
      "extit": 2707,
      "ilit̅": 2708,
      "odis": 2709,
      "itati": 2710,
      "trig": 2711,
      "uiro": 2712,
      "prof": 2713,
      "aues": 2714,
      "auar": 2715,
      "auxili": 2716,
      "ebunt": 2717,
      "cti": 2718,
      "debuit": 2719,
      "quisquis": 2720,
      "obiect": 2721,
      "ordinent": 2722,
      "ordinem": 2723,
      "sedes": 2724,
      "positus": 2725,
      "Quoniam": 2726,
      "omnipot": 2727,
      "uell": 2728,
      "p̄ter": 2729,
      "licentiam": 2730,
      "rid": 2731,
      "incre": 2732,
      "arios": 2733,
      "ariol": 2734,
      "sermon": 2735,
      "faciunt": 2736,
      "faceret": 2737,
      "factum": 2738,
      "part": 2739,
      "paru": 2740,
      "parui": 2741,
      "esset": 2742,
      "illuc": 2743,
      "fricę": 2744,
      "comed": 2745,
      "subiect": 2746,
      "substant": 2747,
      "accusati": 2748,
      "accusatio": 2749,
      "udo": 2750,
      "ediū": 2751,
      "eiusdē": 2752,
      "seruo": 2753,
      "seruare": 2754,
      "claues": 2755,
      "chor": 2756,
      "optentu": 2757,
      "antequam": 2758,
      "idon": 2759,
      "petunt": 2760,
      "xxxvii": 2761,
      "anno": 2762,
      "sacerdotalis": 2763,
      "feri": 2764,
      "corde": 2765,
      "sc̅ific": 2766,
      "decet": 2767,
      "libere": 2768,
      "libros": 2769,
      "olite": 2770,
      "mans": 2771,
      "manere": 2772,
      "mancip": 2773,
      "manich": 2774,
      "istos": 2775,
      "primo": 2776,
      "irrit": 2777,
      "irrid": 2778,
      "neglig": 2779,
      "canonū": 2780,
      "canonibus": 2781,
      "ptione": 2782,
      "mog": 2783,
      "modico": 2784,
      "potestate": 2785,
      "potestatē": 2786,
      "curam": 2787,
      "quadam": 2788,
      "uolens": 2789,
      "obseruare": 2790,
      "iuntur": 2791,
      "uicinis": 2792,
      "apꝉs": 2793,
      "sacros": 2794,
      "ciborum": 2795,
      "diuin": 2796,
      "diuinis": 2797,
      "digna": 2798,
      "necessario": 2799,
      "tanta": 2800,
      "apostolicam": 2801,
      "statuerunt": 2802,
      "precep": 2803,
      "laicis": 2804,
      "scriptis": 2805,
      "superbiendo": 2806,
      "criminato": 2807,
      "detent": 2808,
      "inquit": 2809,
      "remedi": 2810,
      "uestim": 2811,
      "uestri": 2812,
      "uestra": 2813,
      "prouincias": 2814,
      "mitti": 2815,
      "ꝓuincias": 2816,
      "fames": 2817,
      "hominem": 2818,
      "animo": 2819,
      "uigil": 2820,
      "sabbatum": 2821,
      "tuas": 2822,
      "defunct": 2823,
      "auditis": 2824,
      "retin": 2825,
      "ꝓpria": 2826,
      "ꝓprio": 2827,
      "uxorem": 2828,
      "ęcclesiasticę": 2829,
      "humilitate": 2830,
      "sciant": 2831,
      "singulis": 2832,
      "uesꝑtin": 2833,
      "ministerii": 2834,
      "ministerio": 2835,
      "ministerium": 2836,
      "ur̅a": 2837,
      "ualet": 2838,
      "principes": 2839,
      "fugi": 2840,
      "fugiens": 2841,
      "cunctos": 2842,
      "putant": 2843,
      "religione": 2844,
      "spirit": 2845,
      "spiritus": 2846,
      "ministrare": 2847,
      "romana": 2848,
      "peste": 2849,
      "uacu": 2850,
      "clericorum": 2851,
      "dioceseos": 2852,
      "quirendum": 2853,
      "cetera": 2854,
      "escere": 2855,
      "elegerint": 2856,
      "corrigere": 2857,
      "carnium": 2858,
      "auster": 2859,
      "penes": 2860,
      "examine": 2861,
      "clęric": 2862,
      "anathematiz": 2863,
      "ciuitatib": 2864,
      "neglegere": 2865,
      "leonis": 2866,
      "sequens": 2867,
      "confit": 2868,
      "conprouinciales": 2869,
      "existat": 2870,
      "doctores": 2871,
      "Anacleti": 2872,
      "mala": 2873,
      "sensus": 2874,
      "satisfac": 2875,
      "totiens": 2876,
      "inuas": 2877,
      "ibiles": 2878,
      "ebdomadas": 2879,
      "uniuer": 2880,
      "transire": 2881,
      "catholicę": 2882,
      "lętaniis": 2883,
      "flag": 2884,
      "latensi": 2885,
      "mandu": 2886,
      "manduc": 2887,
      "phesfurt": 2888,
      "annuntient": 2889,
      "cottidiana": 2890,
      "regiminis": 2891,
      "susceperit": 2892,
      "luxuria": 2893,
      "persona": 2894,
      "misericordia": 2895,
      "certis": 2896,
      "sollemnia": 2897,
      "sp̅s": 2898,
      "fraternitas": 2899,
      "Interrogandum": 2900,
      "Eusebii": 2901,
      "Eusebius": 2902,
      "fuerant": 2903,
      "difficil": 2904,
      "arbit": 2905,
      "conseruetur": 2906,
      "conuentus": 2907,
      "caste": 2908,
      "reperimus": 2909,
      "urbem": 2910,
      "Gregorii": 2911,
      "dissol": 2912,
      "laudibus": 2913,
      "rationabili": 2914,
      "subiacebit": 2915,
      "migr": 2916,
      "insinu": 2917,
      "imposuerat": 2918,
      "occiderit": 2919,
      "uisibilium": 2920,
      "titulo": 2921,
      "Bonifacii": 2922,
      "Leonis": 2923,
      "Meldensi": 2924,
      "eronimi": 2925,
      "quotiens": 2926,
      "septimana": 2927,
      "afflig": 2928,
      "dinoscitur": 2929,
      "monasterio": 2930,
      "occasione": 2931,
      "entissime": 2932,
      "LIBER": 2933,
      "Iudic": 2934,
      "poll": 2935,
      "infra": 2936,
      "quarta": 2937,
      "securi": 2938,
      "ebriet": 2939,
      "christ": 2940,
      "homicida": 2941,
      "INCIPIT": 2942,
      "gubern": 2943,
      "mihi": 2944,
      "triginta": 2945,
      "interfuit": 2946,
      "the": 2947,
      "Sac": 2948,
      "cere": 2949,
      "iat": 2950,
      "iem": 2951,
      "latus": 2952,
      "mot": 2953,
      "nunc": 2954,
      "tulerit": 2955,
      "ꝑpetr": 2956,
      "atam": 2957,
      "atibus": 2958,
      "it᷒": 2959,
      "etano": 2960,
      "rec̅cili": 2961,
      "imper": 2962,
      "diē": 2963,
      "ulum": 2964,
      "contr": 2965,
      "coniun": 2966,
      "condem": 2967,
      "conuinc": 2968,
      "antē": 2969,
      "und": 2970,
      "unam": 2971,
      "ciosis": 2972,
      "om̄": 2973,
      "aliqͥs": 2974,
      "c̅senti": 2975,
      "excōmunic": 2976,
      "perat": 2977,
      "persecut": 2978,
      "endam": 2979,
      "endas": 2980,
      "aufer": 2981,
      "crip": 2982,
      "quisquam": 2983,
      "ordinationem": 2984,
      "Qualiter": 2985,
      "cipimus": 2986,
      "sollē": 2987,
      "illū": 2988,
      "illorum": 2989,
      "missione": 2990,
      "praeter": 2991,
      "comput": 2992,
      "tempt": 2993,
      "noster": 2994,
      "resper": 2995,
      "om̅i": 2996,
      "carnem": 2997,
      "carcere": 2998,
      "qͥb": 2999,
      "fratrum": 3000,
      "fratrem": 3001,
      "apꝉicā": 3002,
      "sacram̅": 3003,
      "cibum": 3004,
      "dignum": 3005,
      "dignū": 3006,
      "celebrent": 3007,
      "statim": 3008,
      "predic": 3009,
      "quidā": 3010,
      "pellat": 3011,
      "propriis": 3012,
      "temptauerit": 3013,
      "plebibus": 3014,
      "presbiterum": 3015,
      "cōmune": 3016,
      "issimi": 3017,
      "priuetur": 3018,
      "credat": 3019,
      "fr̅m": 3020,
      "translatus": 3021,
      "matrimon": 3022,
      "mutatus": 3023,
      "nou": 3024,
      "pertinet": 3025,
      "penitus": 3026,
      "memb": 3027,
      "ꝑtinet": 3028,
      "scꝉaria": 3029,
      "formam": 3030,
      "sp̅u": 3031,
      "Aurelian̅": 3032,
      "contempserint": 3033,
      "saecularia": 3034,
      "futurum": 3035,
      "rep̄hend": 3036,
      "periculo": 3037,
      "reprehend": 3038,
      "ꝓphet": 3039,
      "consuetudinem": 3040,
      "cii": 3041,
      "rege": 3042,
      "TER": 3043,
      "::": 3044,
      "AD": 3045,
      "AG": 3046,
      "Af": 3047,
      "Ara": 3048,
      "Aug": 3049,
      "Alex": 3050,
      "Africano": 3051,
      "Cab": 3052,
      "Cal": 3053,
      "Calis": 3054,
      "Clem": 3055,
      "Die": 3056,
      "Doct": 3057,
      "Dies": 3058,
      "Hoc": 3059,
      "Hęc": 3060,
      "Iub": 3061,
      "Iuli": 3062,
      "IMA": 3063,
      "Ill": 3064,
      "Ieronimi": 3065,
      "Nos": 3066,
      "Noli": 3067,
      "Nisi": 3068,
      "Om̅": 3069,
      "Pre": 3070,
      "Prim": 3071,
      "Rem": 3072,
      "Rot": 3073,
      "RAG": 3074,
      "Tol": 3075,
      "bl": 3076,
      "bor": 3077,
      "bię": 3078,
      "banni": 3079,
      "cibi": 3080,
      "dita": 3081,
      "ean": 3082,
      "eic": 3083,
      "fus": 3084,
      "fuerunt": 3085,
      "felicis": 3086,
      "gem": 3087,
      "gar": 3088,
      "guit": 3089,
      "hact": 3090,
      "lug": 3091,
      "nus": 3092,
      "nom": 3093,
      "offer": 3094,
      "pi": 3095,
      "pit": 3096,
      "pedi": 3097,
      "pescit": 3098,
      "rent": 3099,
      "ratione": 3100,
      "ratio": 3101,
      "sis": 3102,
      "sper": 3103,
      "satur": 3104,
      "ty": 3105,
      "tia": 3106,
      "tal": 3107,
      "tui": 3108,
      "titus": 3109,
      "tua": 3110,
      "tionem": 3111,
      "tendo": 3112,
      "uu": 3113,
      "uint": 3114,
      "uunt": 3115,
      "uiss": 3116,
      "uati": 3117,
      "uale": 3118,
      "xli": 3119,
      "xiiii": 3120,
      "": 3121,
      "istis": 3122,
      "er̅": 3123,
      "eratis": 3124,
      "erata": 3125,
      "erbi": 3126,
      "erentur": 3127,
      "erra": 3128,
      "erdot": 3129,
      "intr": 3130,
      "inmun": 3131,
      "inop": 3132,
      "infest": 3133,
      "incid": 3134,
      "insist": 3135,
      "indiscret": 3136,
      "inpedi": 3137,
      "atā": 3138,
      "attal": 3139,
      "itant": 3140,
      "usico": 3141,
      "quest": 3142,
      "quint": 3143,
      "quarum": 3144,
      "qualis": 3145,
      "quinqu": 3146,
      "qualib": 3147,
      "esur": 3148,
      "essi": 3149,
      "ani": 3150,
      "ania": 3151,
      "orm": 3152,
      "orn": 3153,
      "oratione": 3154,
      "orando": 3155,
      "orationes": 3156,
      "icię": 3157,
      "decid": 3158,
      "reus": 3159,
      "requis": 3160,
      "repleta": 3161,
      "utis": 3162,
      "utere": 3163,
      "iuu": 3164,
      "iuit": 3165,
      "iuerit": 3166,
      "iudei": 3167,
      "entius": 3168,
      "coqu": 3169,
      "cooper": 3170,
      "amque": 3171,
      "ambi": 3172,
      "seuer": 3173,
      "sect": 3174,
      "sexta": 3175,
      "pris": 3176,
      "pros": 3177,
      "prand": 3178,
      "prioribus": 3179,
      "suorum": 3180,
      "dix": 3181,
      "dirig": 3182,
      "directa": 3183,
      "emur": 3184,
      "emiss": 3185,
      "arim": 3186,
      "aribus": 3187,
      "ardu": 3188,
      "ulatio": 3189,
      "ultim": 3190,
      "congr": 3191,
      "conciꝉ": 3192,
      "antent": 3193,
      "antibus": 3194,
      "adere": 3195,
      "adimpl": 3196,
      "uerac": 3197,
      "ueritatis": 3198,
      "uerecun": 3199,
      "uni": 3200,
      "unius": 3201,
      "abus": 3202,
      "abomin": 3203,
      "abici": 3204,
      "absoluat": 3205,
      "absente": 3206,
      "ciis": 3207,
      "ciatis": 3208,
      "sidu": 3209,
      "quiet": 3210,
      "stip": 3211,
      "stantes": 3212,
      "olera": 3213,
      "alciatis": 3214,
      "episcopatū": 3215,
      "aliorum": 3216,
      "aliquē": 3217,
      "dic̅": 3218,
      "dicant": 3219,
      "dicunt": 3220,
      "dictū": 3221,
      "occul": 3222,
      "eleis": 3223,
      "c̅seru": 3224,
      "c̅tent": 3225,
      "c̅uent": 3226,
      "asper": 3227,
      "assidu": 3228,
      "iustus": 3229,
      "excipi": 3230,
      "ilico": 3231,
      "odus": 3232,
      "itatibus": 3233,
      "iunio": 3234,
      "iunxer": 3235,
      "terra": 3236,
      "endat": 3237,
      "endatur": 3238,
      "uirum": 3239,
      "uienn": 3240,
      "audeat": 3241,
      "ieiunat": 3242,
      "ieiunatis": 3243,
      "ieiuniis": 3244,
      "ieiunando": 3245,
      "egy": 3246,
      "egerit": 3247,
      "robor": 3248,
      "debat": 3249,
      "debita": 3250,
      "plect": 3251,
      "plena": 3252,
      "fix": 3253,
      "fieret": 3254,
      "figat": 3255,
      "uitanda": 3256,
      "agit": 3257,
      "aginta": 3258,
      "agesima": 3259,
      "obtin": 3260,
      "obsecr": 3261,
      "obru": 3262,
      "obędi": 3263,
      "issimus": 3264,
      "ordines": 3265,
      "ordinentur": 3266,
      "ordinationibus": 3267,
      "uenerunt": 3268,
      "andri": 3269,
      "sacco": 3270,
      "posit": 3271,
      "Quant": 3272,
      "ensionis": 3273,
      "iudiciis": 3274,
      "uelle": 3275,
      "p̄sent": 3276,
      "p̄cio": 3277,
      "habens": 3278,
      "licere": 3279,
      "licentiā": 3280,
      "incor": 3281,
      "inced": 3282,
      "increm": 3283,
      "ariis": 3284,
      "duos": 3285,
      "duplic": 3286,
      "dominici": 3287,
      "serat": 3288,
      "seruit": 3289,
      "facto": 3290,
      "factū": 3291,
      "facerent": 3292,
      "solet": 3293,
      "solot": 3294,
      "soluere": 3295,
      "essione": 3296,
      "essationes": 3297,
      "frug": 3298,
      "conciliis": 3299,
      "cauerint": 3300,
      "displic": 3301,
      "distulerit": 3302,
      "temere": 3303,
      "minat": 3304,
      "subnot": 3305,
      "subtrac": 3306,
      "ponat": 3307,
      "accuset": 3308,
      "accusetur": 3309,
      "accusato": 3310,
      "sane": 3311,
      "munere": 3312,
      "nostra": 3313,
      "quae": 3314,
      "edoc": 3315,
      "synodi": 3316,
      "clar": 3317,
      "potuisse": 3318,
      "antequā": 3319,
      "uincere": 3320,
      "petendo": 3321,
      "xxvi": 3322,
      "xxiii": 3323,
      "annus": 3324,
      "ferię": 3325,
      "cordi": 3326,
      "correct": 3327,
      "corrip": 3328,
      "patre": 3329,
      "patrem": 3330,
      "leges": 3331,
      "legibus": 3332,
      "quodam": 3333,
      "quodā": 3334,
      "decantent": 3335,
      "cōm": 3336,
      "iori": 3337,
      "manendo": 3338,
      "cardu": 3339,
      "scit": 3340,
      "scel": 3341,
      "uocet": 3342,
      "uocatis": 3343,
      "atoribus": 3344,
      "irrig": 3345,
      "neganda": 3346,
      "cipiant": 3347,
      "canonib": 3348,
      "crimina": 3349,
      "mox": 3350,
      "ingredi": 3351,
      "metropolitanorum": 3352,
      "damus": 3353,
      "cell": 3354,
      "cura": 3355,
      "curat": 3356,
      "curā": 3357,
      "curatos": 3358,
      "interim": 3359,
      "communionem": 3360,
      "cęlis": 3361,
      "cępit": 3362,
      "moneant": 3363,
      "doceret": 3364,
      "genu": 3365,
      "sacra": 3366,
      "sacras": 3367,
      "cibos": 3368,
      "spinas": 3369,
      "celebrare": 3370,
      "celebritatis": 3371,
      "abstinent": 3372,
      "tanto": 3373,
      "clerici": 3374,
      "desp": 3375,
      "mores": 3376,
      "morari": 3377,
      "morte": 3378,
      "mortu": 3379,
      "iugū": 3380,
      "actione": 3381,
      "culę": 3382,
      "nr̅a": 3383,
      "locus": 3384,
      "preb": 3385,
      "testific": 3386,
      "abscon": 3387,
      "populus": 3388,
      "uino": 3389,
      "praecio": 3390,
      "ieiunioꝝ": 3391,
      "septē": 3392,
      "erga": 3393,
      "icoꝝ": 3394,
      "plebem": 3395,
      "presbiteros": 3396,
      "capita": 3397,
      "captiu": 3398,
      "xp̅o": 3399,
      "simon": 3400,
      "simil": 3401,
      "simplic": 3402,
      "similiter": 3403,
      "ulisse": 3404,
      "pƀrm": 3405,
      "pƀros": 3406,
      "fecerat": 3407,
      "hęred": 3408,
      "natiu": 3409,
      "natalis": 3410,
      "definit": 3411,
      "infirmitate": 3412,
      "infirmitates": 3413,
      "uirg": 3414,
      "uirū": 3415,
      "misit": 3416,
      "domest": 3417,
      "elemosinę": 3418,
      "elemosinas": 3419,
      "issimum": 3420,
      "hanię": 3421,
      "discord": 3422,
      "discalciatis": 3423,
      "magistr": 3424,
      "ęcclesiastica": 3425,
      "scilicet": 3426,
      "diligenter": 3427,
      "diligentissime": 3428,
      "audierint": 3429,
      "decima": 3430,
      "credendi": 3431,
      "c̅ciliū": 3432,
      "hortam": 3433,
      "diocesim": 3434,
      "circu": 3435,
      "transmisso": 3436,
      "ministeriū": 3437,
      "continere": 3438,
      "continua": 3439,
      "uigilia": 3440,
      "uigilię": 3441,
      "beati": 3442,
      "gallię": 3443,
      "pura": 3444,
      "possimus": 3445,
      "Nequa": 3446,
      "linquere": 3447,
      "quales": 3448,
      "electio": 3449,
      "uacandi": 3450,
      "clericos": 3451,
      "diocesi": 3452,
      "quicꝗd": 3453,
      "affect": 3454,
      "affricę": 3455,
      "ceterorum": 3456,
      "moderata": 3457,
      "cognitis": 3458,
      "appellare": 3459,
      "ascensionis": 3460,
      "tradita": 3461,
      "corrigendo": 3462,
      "liberius": 3463,
      "cibiades": 3464,
      "impie": 3465,
      "c̅stituta": 3466,
      "carniū": 3467,
      "gerebat": 3468,
      "poter": 3469,
      "pene": 3470,
      "penit": 3471,
      "infamia": 3472,
      "clęr": 3473,
      "Placita": 3474,
      "uenerari": 3475,
      "cessare": 3476,
      "leuit": 3477,
      "tribuit": 3478,
      "tribulatio": 3479,
      "quatuordies": 3480,
      "Constit": 3481,
      "Concurr": 3482,
      "flectant": 3483,
      "flectere": 3484,
      "pastor": 3485,
      "pastore": 3486,
      "ambitus": 3487,
      "conprouincialium": 3488,
      "iudiciaria": 3489,
      "successores": 3490,
      "martio": 3491,
      "redire": 3492,
      "ibilis": 3493,
      "ebdomada": 3494,
      "purgatione": 3495,
      "purgato": 3496,
      "herem": 3497,
      "heresim": 3498,
      "iteor": 3499,
      "ducant": 3500,
      "xp̅ianis": 3501,
      "christianis": 3502,
      "cutitis": 3503,
      "t̅min": 3504,
      "plurim": 3505,
      "numerus": 3506,
      "annuntiant": 3507,
      "annuntiare": 3508,
      "cottidianum": 3509,
      "cottidianū": 3510,
      "Arguit": 3511,
      "tendit": 3512,
      "angel": 3513,
      "deuote": 3514,
      "deuotione": 3515,
      "utilitate": 3516,
      "colleg": 3517,
      "accedere": 3518,
      "regimine": 3519,
      "memoratio": 3520,
      "innocens": 3521,
      "elix": 3522,
      "fund": 3523,
      "germinat": 3524,
      "pace": 3525,
      "pacific": 3526,
      "indul": 3527,
      "instituta": 3528,
      "orient": 3529,
      "refectio": 3530,
      "Quęr": 3531,
      "districto": 3532,
      "corporea": 3533,
      "consentientes": 3534,
      "exempla": 3535,
      "suscipiendis": 3536,
      "sacramentum": 3537,
      "Episcopus": 3538,
      "ignorant": 3539,
      "induciis": 3540,
      "remanent": 3541,
      "remaneat": 3542,
      "c̅ꝓuinciales": 3543,
      "exorent": 3544,
      "exigunt": 3545,
      "scandal": 3546,
      "mulierculę": 3547,
      "Similiter": 3548,
      "pane": 3549,
      "difficili": 3550,
      "tridu": 3551,
      "triduo": 3552,
      "debitores": 3553,
      "custodita": 3554,
      "reseruare": 3555,
      "Ep̅s": 3556,
      "derelinquere": 3557,
      "equitare": 3558,
      "equitando": 3559,
      "merito": 3560,
      "uillul": 3561,
      "graui": 3562,
      "necessitatibus": 3563,
      "scriptura": 3564,
      "uespera": 3565,
      "cathedram": 3566,
      "absoluto": 3567,
      "adeundi": 3568,
      "bibere": 3569,
      "lingua": 3570,
      "linguę": 3571,
      "leuitate": 3572,
      "largitis": 3573,
      "pagan": 3574,
      "rabie": 3575,
      "reuelabat": 3576,
      "estimata": 3577,
      "egritudine": 3578,
      "omnimodis": 3579,
      "moysi": 3580,
      "uulgus": 3581,
      "uulgari": 3582,
      "transigamus": 3583,
      "mercedis": 3584,
      "basilicę": 3585,
      "Alcibiades": 3586,
      "glorific": 3587,
      "dolore": 3588,
      "torpescit": 3589,
      "student": 3590,
      "c̅fit": 3591,
      "iohannis": 3592,
      "egrot": 3593,
      "facultates": 3594,
      "sanguin": 3595,
      "festiuitates": 3596,
      "Abstin": 3597,
      "Int̅": 3598,
      "crediderit": 3599,
      "declin": 3600,
      "repetitis": 3601,
      "respiciunt": 3602,
      "doctrina": 3603,
      "sacratissimis": 3604,
      "euadamus": 3605,
      "hospes": 3606,
      "cogitationis": 3607,
      "existiment": 3608,
      "creaturis": 3609,
      "pugno": 3610,
      "Stephani": 3611,
      "eroget": 3612,
      "frat̅n": 3613,
      "antioch": 3614,
      "Christo": 3615,
      "Solent": 3616,
      "fatig": 3617,
      "luporum": 3618,
      "sęcul": 3619,
      "erosoli": 3620,
      "querel": 3621,
      "cilicio": 3622,
      "stimulo": 3623,
      "obiecta": 3624,
      "ariolandi": 3625,
      "paruulis": 3626,
      "comedenda": 3627,
      "choros": 3628,
      "manichei": 3629,
      "irridentes": 3630,
      "detentus": 3631,
      "uigilando": 3632,
      "uniuersale": 3633,
      "flagelli": 3634,
      "manducauerint": 3635,
      "manducare": 3636,
      "dissoluit": 3637,
      "polluit": 3638,
      "ebrietates": 3639,
      "Sacerdot": 3640,
      "ADRAG": 3641,
      "Arausico": 3642,
      "Cabill": 3643,
      "bannire": 3644,
      "garensi": 3645,
      "lugere": 3646,
      "nomen": 3647,
      "saturitate": 3648,
      "uintia": 3649,
      "ualeamus": 3650,
      "errauerint": 3651,
      "insistere": 3652,
      "attalo": 3653,
      "quintę": 3654,
      "quinquagesima": 3655,
      "qualibet": 3656,
      "esurire": 3657,
      "prandere": 3658,
      "ultima": 3659,
      "eleison": 3660,
      "c̅tentiones": 3661,
      "excipiendo": 3662,
      "incedant": 3663,
      "duplicata": 3664,
      "displicet": 3665,
      "subtracti": 3666,
      "irrigata": 3667,
      "circueat": 3668,
      "ADRAGES": 3669,
      "theim": 3670,
      "testament": 3671,
      "int̅fuit": 3672,
      "He": 3673,
      "Hein": 3674,
      "Prop": 3675,
      "Sc": 3676,
      "aqua": 3677,
      "cis": 3678,
      "cetur": 3679,
      "dę": 3680,
      "econtra": 3681,
      "iħ": 3682,
      "idem": 3683,
      "iorū": 3684,
      "kar": 3685,
      "p᷒": 3686,
      "rationem": 3687,
      "rationē": 3688,
      "sam": 3689,
      "uatur": 3690,
      "ꝑsecut": 3691,
      "ꝓxim": 3692,
      "inl": 3693,
      "ice": 3694,
      "ictus": 3695,
      "deferat": 3696,
      "utum": 3697,
      "utū": 3698,
      "epip": 3699,
      "proc": 3700,
      "prod": 3701,
      "sul": 3702,
      "contēp": 3703,
      "conuenit": 3704,
      "conueniant": 3705,
      "contumat": 3706,
      "ueritatem": 3707,
      "ueritatē": 3708,
      "uernensi": 3709,
      "une": 3710,
      "aliquam": 3711,
      "aliquā": 3712,
      "aliqᷓ": 3713,
      "c̅sci": 3714,
      "c̅ueniat": 3715,
      "c̅sensu": 3716,
      "iustam": 3717,
      "exē": 3718,
      "permitt": 3719,
      "āq": 3720,
      "terr": 3721,
      "iohann": 3722,
      "prouinc": 3723,
      "proxim": 3724,
      "aug": 3725,
      "ebant": 3726,
      "quisquā": 3727,
      "fir": 3728,
      "uitā": 3729,
      "ordinationē": 3730,
      "andam": 3731,
      "iudicem": 3732,
      "iudicetur": 3733,
      "uelut": 3734,
      "quędam": 3735,
      "quędā": 3736,
      "p̄b": 3737,
      "p̄ciosis": 3738,
      "facit": 3739,
      "factus": 3740,
      "solem": 3741,
      "praem": 3742,
      "praeb": 3743,
      "commissa": 3744,
      "subscr": 3745,
      "accusatur": 3746,
      "accusationē": 3747,
      "quamuis": 3748,
      "sc̅orum": 3749,
      "om̅is": 3750,
      "cōmissa": 3751,
      "summa": 3752,
      "uocant": 3753,
      "uocantur": 3754,
      "absterg": 3755,
      "interrog": 3756,
      "communi": 3757,
      "apꝉis": 3758,
      "apꝉorū": 3759,
      "cibū": 3760,
      "firmetur": 3761,
      "apostolis": 3762,
      "ips̅": 3763,
      "locū": 3764,
      "testibus": 3765,
      "saltem": 3766,
      "superioribus": 3767,
      "criminib": 3768,
      "deter": 3769,
      "soluantur": 3770,
      "praecios": 3771,
      "eorumque": 3772,
      "ꝓuinciā": 3773,
      "nostrorum": 3774,
      "presbiteris": 3775,
      "xp̅m": 3776,
      "quadragesimam": 3777,
      "cedere": 3778,
      "quibusdam": 3779,
      "ꝓpriis": 3780,
      "senior": 3781,
      "alicui": 3782,
      "decimam": 3783,
      "decimemus": 3784,
      "cidonensi": 3785,
      "mutat": 3786,
      "abiliter": 3787,
      "diaconos": 3788,
      "bonum": 3789,
      "galliarū": 3790,
      "sūm": 3791,
      "laicam": 3792,
      "initiū": 3793,
      "clericus": 3794,
      "modum": 3795,
      "uideantur": 3796,
      "antiqui": 3797,
      "bannum": 3798,
      "acceptam": 3799,
      "constituere": 3800,
      "sensum": 3801,
      "archiepiscopus": 3802,
      "archiep̅s": 3803,
      "formā": 3804,
      "quanto": 3805,
      "quantum": 3806,
      "quantū": 3807,
      "Quo̅": 3808,
      "praesumpt": 3809,
      "imponat": 3810,
      "consentiente": 3811,
      "exemplo": 3812,
      "adiut": 3813,
      "c̅iugib": 3814,
      "Interrogandū": 3815,
      "namque": 3816,
      "ouibus": 3817,
      "Gregorius": 3818,
      "lucr": 3819,
      "rogationū": 3820,
      "discutiant": 3821,
      "uniuersis": 3822,
      "expoliatus": 3823,
      "rep̄hens": 3824,
      "incuruati": 3825,
      "tempora": 3826,
      "priuilegio": 3827,
      "pauperibus": 3828,
      "finiatur": 3829,
      "rabiem": 3830,
      "decernimus": 3831,
      "fornicatus": 3832,
      "spacium": 3833,
      "p̄sūpserit": 3834,
      "nequaquam": 3835,
      "nequaquā": 3836,
      "supradictis": 3837,
      "Agamus": 3838,
      "ꝓpter": 3839,
      "inuicem": 3840,
      "supplementum": 3841,
      "omnipotenti": 3842,
      "affligimur": 3843,
      "christum": 3844,
      "membris": 3845,
      "Affricano": 3846,
      "Toletano": 3847,
      "hactenus": 3848,
      "solotenus": 3849,
      "Constituimus": 3850,
      "epiphanię": 3851,
      "prouinciam": 3852,
      "subscrips̅": 3853,
      "praeciosis": 3854,
      "Are": 3855,
      "Brag": 3856,
      "Ca": 3857,
      "Cur": 3858,
      "Cui": 3859,
      "Dec": 3860,
      "Er": 3861,
      "Eius": 3862,
      "Euar": 3863,
      "Flect": 3864,
      "Gangrensi": 3865,
      "Hil": 3866,
      "Ius": 3867,
      "Iur": 3868,
      "Ma": 3869,
      "Mar": 3870,
      "MMA": 3871,
      "Nimis": 3872,
      "Oport": 3873,
      "Pres": 3874,
      "Prę": 3875,
      "Pimenii": 3876,
      "QU": 3877,
      "SV": 3878,
      "Sic": 3879,
      "Sunt": 3880,
      "Scrip": 3881,
      "Tr": 3882,
      "Uerbi": 3883,
      "VS": 3884,
      "Veniant": 3885,
      "aquam": 3886,
      "axii": 3887,
      "bum": 3888,
      "bas": 3889,
      "bita": 3890,
      "bini": 3891,
      "ce": 3892,
      "cem": 3893,
      "cuit": 3894,
      "ceri": 3895,
      "centur": 3896,
      "calli": 3897,
      "cena": 3898,
      "censem": 3899,
      "ditate": 3900,
      "dente": 3901,
      "derint": 3902,
      "eut": 3903,
      "eunt": 3904,
      "eici": 3905,
      "fin": 3906,
      "fen": 3907,
      "fau": 3908,
      "flet": 3909,
      "gal": 3910,
      "hest": 3911,
      "here": 3912,
      "has": 3913,
      "hil": 3914,
      "horum": 3915,
      "hinc": 3916,
      "heret": 3917,
      "hanni": 3918,
      "hebit": 3919,
      "idē": 3920,
      "kyr": 3921,
      "latis": 3922,
      "lvii": 3923,
      "my": 3924,
      "mentis": 3925,
      "mach": 3926,
      "nim": 3927,
      "nom̅": 3928,
      "nup": 3929,
      "nolite": 3930,
      "oues": 3931,
      "pia": 3932,
      "pess": 3933,
      "pud": 3934,
      "pserint": 3935,
      "rar": 3936,
      "rius": 3937,
      "rata": 3938,
      "sinc": 3939,
      "sinis": 3940,
      "th": 3941,
      "tac": 3942,
      "tar": 3943,
      "tas": 3944,
      "tionis": 3945,
      "tores": 3946,
      "tionē": 3947,
      "trec": 3948,
      "uex": 3949,
      "uil": 3950,
      "uine": 3951,
      "ueter": 3952,
      "ęqu": 3953,
      "̅tis": 3954,
      "ꝑueniat": 3955,
      "iserit": 3956,
      "eria": 3957,
      "inum": 3958,
      "inū": 3959,
      "inui": 3960,
      "inpos": 3961,
      "inuol": 3962,
      "inhib": 3963,
      "iniur": 3964,
      "inferre": 3965,
      "inconsul": 3966,
      "innup": 3967,
      "itę": 3968,
      "itiones": 3969,
      "quarū": 3970,
      "quinta": 3971,
      "ont": 3972,
      "onom": 3973,
      "onere": 3974,
      "onico": 3975,
      "endie": 3976,
      "etis": 3977,
      "umus": 3978,
      "anę": 3979,
      "anci": 3980,
      "anacleti": 3981,
      "oria": 3982,
      "orationibus": 3983,
      "icorū": 3984,
      "limin": 3985,
      "deg": 3986,
      "del": 3987,
      "defuerit": 3988,
      "deleg": 3989,
      "deput": 3990,
      "rei": 3991,
      "refer": 3992,
      "remor": 3993,
      "recipiunt": 3994,
      "remou": 3995,
      "ute": 3996,
      "utius": 3997,
      "utrum": 3998,
      "utrū": 3999,
      "eperit": 4000,
      "iude": 4001,
      "entos": 4002,
      "imę": 4003,
      "immo": 4004,
      "impulsus": 4005,
      "coerc": 4006,
      "urus": 4007,
      "semet": 4008,
      "acc": 4009,
      "princeps": 4010,
      "suf": 4011,
      "sug": 4012,
      "suorū": 4013,
      "dio": 4014,
      "diiudicare": 4015,
      "didicimus": 4016,
      "diutius": 4017,
      "arib": 4018,
      "arii": 4019,
      "arunt": 4020,
      "arit̅": 4021,
      "ulos": 4022,
      "ulisset": 4023,
      "conuic": 4024,
      "conꝓuincia": 4025,
      "consid": 4026,
      "conpens": 4027,
      "concub": 4028,
      "conuell": 4029,
      "antiū": 4030,
      "antist": 4031,
      "admon": 4032,
      "aduent": 4033,
      "adiuu": 4034,
      "adiunxer": 4035,
      "ecerit": 4036,
      "uerus": 4037,
      "uerii": 4038,
      "ueritate": 4039,
      "apid": 4040,
      "ung": 4041,
      "abo": 4042,
      "abut": 4043,
      "abiect": 4044,
      "ablata": 4045,
      "sil": 4046,
      "quill": 4047,
      "stare": 4048,
      "stult": 4049,
      "steria": 4050,
      "olus": 4051,
      "alex": 4052,
      "episcopali": 4053,
      "episcopalis": 4054,
      "aliqui": 4055,
      "alias": 4056,
      "aliquos": 4057,
      "elleg": 4058,
      "c̅gr": 4059,
      "c̅str": 4060,
      "c̅sili": 4061,
      "asph": 4062,
      "iustic": 4063,
      "exuerint": 4064,
      "excess": 4065,
      "excell": 4066,
      "ile": 4067,
      "peret": 4068,
      "peruenire": 4069,
      "percipere": 4070,
      "trin": 4071,
      "iung": 4072,
      "ote": 4073,
      "endere": 4074,
      "iouis": 4075,
      "iebat": 4076,
      "uix": 4077,
      "prout": 4078,
      "audis": 4079,
      "aureli": 4080,
      "audeant": 4081,
      "intelleg": 4082,
      "ego": 4083,
      "egip": 4084,
      "fides": 4085,
      "uite": 4086,
      "uitabili": 4087,
      "agendum": 4088,
      "agenda": 4089,
      "agendū": 4090,
      "obl": 4091,
      "obici": 4092,
      "obierit": 4093,
      "obiciunt": 4094,
      "obsequi": 4095,
      "obedire": 4096,
      "ordinē": 4097,
      "ordinatis": 4098,
      "ordinandi": 4099,
      "ordinationis": 4100,
      "ordinauerat": 4101,
      "ordinationib": 4102,
      "andos": 4103,
      "saciet": 4104,
      "positi": 4105,
      "sitan": 4106,
      "Quic": 4107,
      "Quam": 4108,
      "Quem": 4109,
      "Quā": 4110,
      "Quē": 4111,
      "Quando": 4112,
      "tigerit": 4113,
      "ulla": 4114,
      "ullatenus": 4115,
      "omnem": 4116,
      "porū": 4117,
      "uelit": 4118,
      "p̄par": 4119,
      "licenter": 4120,
      "ecta": 4121,
      "serui": 4122,
      "facta": 4123,
      "facile": 4124,
      "parentibus": 4125,
      "solo": 4126,
      "solus": 4127,
      "essionis": 4128,
      "missū": 4129,
      "nullis": 4130,
      "nullomodo": 4131,
      "fruct": 4132,
      "praep": 4133,
      "concilia": 4134,
      "commissis": 4135,
      "comprob": 4136,
      "temer": 4137,
      "regulis": 4138,
      "minores": 4139,
      "subd": 4140,
      "subrog": 4141,
      "subrip": 4142,
      "ęccꝉiis": 4143,
      "ponatur": 4144,
      "ponentes": 4145,
      "udinis": 4146,
      "nef": 4147,
      "iterum": 4148,
      "iterū": 4149,
      "suscipere": 4150,
      "ineuitabili": 4151,
      "edat": 4152,
      "seruum": 4153,
      "claud": 4154,
      "uisitat": 4155,
      "uisti": 4156,
      "uistis": 4157,
      "uisitant": 4158,
      "quāuis": 4159,
      "resur": 4160,
      "opin": 4161,
      "optam": 4162,
      "synodis": 4163,
      "petit": 4164,
      "xxv": 4165,
      "xxii": 4166,
      "annum": 4167,
      "annuę": 4168,
      "sacerdotii": 4169,
      "sacerdotio": 4170,
      "sacerdotale": 4171,
      "corā": 4172,
      "corpus": 4173,
      "dieb᷒": 4174,
      "patris": 4175,
      "patitur": 4176,
      "patrē": 4177,
      "lege": 4178,
      "legant": 4179,
      "legatione": 4180,
      "leguntur": 4181,
      "tradi": 4182,
      "Quodsi": 4183,
      "decem": 4184,
      "decess": 4185,
      "tamquam": 4186,
      "libitu": 4187,
      "portas": 4188,
      "portandi": 4189,
      "asti": 4190,
      "sumat": 4191,
      "canino": 4192,
      "sententię": 4193,
      "sentire": 4194,
      "mansuet": 4195,
      "istus": 4196,
      "istius": 4197,
      "istoria": 4198,
      "caritate": 4199,
      "tēpt": 4200,
      "uocare": 4201,
      "uocati": 4202,
      "uocato": 4203,
      "maxim": 4204,
      "atori": 4205,
      "atoris": 4206,
      "ceperit": 4207,
      "primi": 4208,
      "primum": 4209,
      "primatem": 4210,
      "altera": 4211,
      "alterum": 4212,
      "alterū": 4213,
      "canonicę": 4214,
      "bienn": 4215,
      "Inquirendum": 4216,
      "metropolitana": 4217,
      "metropolitanis": 4218,
      "eiect": 4219,
      "abstulisset": 4220,
      "quadā": 4221,
      "fratri": 4222,
      "iturus": 4223,
      "tranquill": 4224,
      "interdicimus": 4225,
      "suadebat": 4226,
      "communis": 4227,
      "uicarios": 4228,
      "redd": 4229,
      "redarg": 4230,
      "redinteg": 4231,
      "reddat": 4232,
      "foro": 4233,
      "forsitan": 4234,
      "placere": 4235,
      "apꝉico": 4236,
      "apꝉoꝝ": 4237,
      "monstr": 4238,
      "diuid": 4239,
      "dignitatis": 4240,
      "apostolico": 4241,
      "postul": 4242,
      "reliquorum": 4243,
      "fideles": 4244,
      "morti": 4245,
      "eccꝉ": 4246,
      "actio": 4247,
      "actores": 4248,
      "nr̅is": 4249,
      "nr̅am": 4250,
      "absens": 4251,
      "saltim": 4252,
      "dias": 4253,
      "propriam": 4254,
      "honest": 4255,
      "honoris": 4256,
      "uincti": 4257,
      "constituti": 4258,
      "constitutio": 4259,
      "constitutionem": 4260,
      "criminantur": 4261,
      "criminandi": 4262,
      "detrah": 4263,
      "remot": 4264,
      "remediū": 4265,
      "uestibus": 4266,
      "faciendum": 4267,
      "separ": 4268,
      "sepius": 4269,
      "lecta": 4270,
      "nocere": 4271,
      "plebs": 4272,
      "nostris": 4273,
      "nostram": 4274,
      "cap̅": 4275,
      "passim": 4276,
      "erna": 4277,
      "erno": 4278,
      "simili": 4279,
      "hominē": 4280,
      "animi": 4281,
      "pƀris": 4282,
      "fecerint": 4283,
      "cōmunis": 4284,
      "timore": 4285,
      "sabbatū": 4286,
      "tuo": 4287,
      "tuę": 4288,
      "tenere": 4289,
      "quibusdā": 4290,
      "quibuslibet": 4291,
      "defens": 4292,
      "reuerent": 4293,
      "reuertendo": 4294,
      "audit": 4295,
      "suꝑbiendo": 4296,
      "retent": 4297,
      "dāpn": 4298,
      "romano": 4299,
      "senex": 4300,
      "senect": 4301,
      "iurare": 4302,
      "issimo": 4303,
      "issimū": 4304,
      "peccato": 4305,
      "uult": 4306,
      "alienę": 4307,
      "alienos": 4308,
      "discern": 4309,
      "magister": 4310,
      "ęcclesiastico": 4311,
      "humano": 4312,
      "sciat": 4313,
      "audire": 4314,
      "decimę": 4315,
      "credunt": 4316,
      "credimus": 4317,
      "melius": 4318,
      "priusquam": 4319,
      "priusquā": 4320,
      "hort": 4321,
      "horam": 4322,
      "cirano": 4323,
      "circuit": 4324,
      "ęccꝉastica": 4325,
      "ęccꝉastico": 4326,
      "ęccꝉasticę": 4327,
      "grauis": 4328,
      "grauari": 4329,
      "transfer": 4330,
      "transmigr": 4331,
      "ministeriis": 4332,
      "pontificis": 4333,
      "matric": 4334,
      "tanea": 4335,
      "ur̅i": 4336,
      "patribus": 4337,
      "uigiliam": 4338,
      "lętit": 4339,
      "galliam": 4340,
      "galliā": 4341,
      "hierosoli": 4342,
      "secunda": 4343,
      "succedat": 4344,
      "uiderit": 4345,
      "uidetur": 4346,
      "possibil": 4347,
      "nox": 4348,
      "noƀ": 4349,
      "eligatur": 4350,
      "putat": 4351,
      "putatur": 4352,
      "laicos": 4353,
      "p̄sumant": 4354,
      "suspitione": 4355,
      "suspecti": 4356,
      "clericorū": 4357,
      "consecrauerat": 4358,
      "communicet": 4359,
      "modis": 4360,
      "escat": 4361,
      "elegit": 4362,
      "corrigant": 4363,
      "canonicam": 4364,
      "presumant": 4365,
      "uoluntates": 4366,
      "damnatus": 4367,
      "xxxiii": 4368,
      "poposc": 4369,
      "recipiantur": 4370,
      "dubio": 4371,
      "negotii": 4372,
      "singulas": 4373,
      "singularum": 4374,
      "Concili": 4375,
      "pauli": 4376,
      "pastoris": 4377,
      "existere": 4378,
      "uinciis": 4379,
      "constiterit": 4380,
      "doctorem": 4381,
      "praecipitur": 4382,
      "marty": 4383,
      "malo": 4384,
      "spontanea": 4385,
      "totius": 4386,
      "inuadere": 4387,
      "sexdies": 4388,
      "gradu": 4389,
      "petrus": 4390,
      "tantummodo": 4391,
      "heres": 4392,
      "supplic": 4393,
      "ducit": 4394,
      "operis": 4395,
      "paulus": 4396,
      "ueh": 4397,
      "plurimi": 4398,
      "respondeat": 4399,
      "respondit": 4400,
      "catholica": 4401,
      "pęna": 4402,
      "usurpet": 4403,
      "usurpat": 4404,
      "usurpatione": 4405,
      "excusare": 4406,
      "excusatione": 4407,
      "p̄dicare": 4408,
      "restituit": 4409,
      "oniz": 4410,
      "Aruernensi": 4411,
      "tendere": 4412,
      "tendunt": 4413,
      "angus": 4414,
      "angeli": 4415,
      "utilitatis": 4416,
      "iacam": 4417,
      "accedat": 4418,
      "integri": 4419,
      "integerr": 4420,
      "tantūmodo": 4421,
      "legitimo": 4422,
      "congregand": 4423,
      "congregati": 4424,
      "praedicare": 4425,
      "misericordiam": 4426,
      "fung": 4427,
      "uęro": 4428,
      "c̅tinere": 4429,
      "uiduatę": 4430,
      "desiderat": 4431,
      "desiderant": 4432,
      "constringat": 4433,
      "certe": 4434,
      "exemplum": 4435,
      "ignot": 4436,
      "recepit": 4437,
      "recepti": 4438,
      "receptus": 4439,
      "differri": 4440,
      "c̅ꝓuincialiū": 4441,
      "exorbita": 4442,
      "solummodo": 4443,
      "discipulus": 4444,
      "Similit̅": 4445,
      "ꝑsona": 4446,
      "cōmunicet": 4447,
      "denunt": 4448,
      "denomin": 4449,
      "nullius": 4450,
      "insidias": 4451,
      "ichiani": 4452,
      "debitoribus": 4453,
      "castell": 4454,
      "tollamus": 4455,
      "pulsis": 4456,
      "disciplina": 4457,
      "baptistę": 4458,
      "inuenimus": 4459,
      "tracię": 4460,
      "destin": 4461,
      "destit": 4462,
      "luporū": 4463,
      "laudib": 4464,
      "uillas": 4465,
      "signific": 4466,
      "necessitatib": 4467,
      "testimonio": 4468,
      "poenitentia": 4469,
      "poenitentiam": 4470,
      "peregrinis": 4471,
      "emendationem": 4472,
      "laudes": 4473,
      "maledic": 4474,
      "multit": 4475,
      "rapuerit": 4476,
      "depositus": 4477,
      "conuersationis": 4478,
      "omnimodo": 4479,
      "uisibiliū": 4480,
      "culpam": 4481,
      "salute": 4482,
      "restituat": 4483,
      "restitutus": 4484,
      "frequent": 4485,
      "Ipse": 4486,
      "Ipsi": 4487,
      "fulci": 4488,
      "falsa": 4489,
      "falsam": 4490,
      "exhibere": 4491,
      "iohanne": 4492,
      "nequiuerit": 4493,
      "sanguine": 4494,
      "populos": 4495,
      "definire": 4496,
      "patriarchas": 4497,
      "scandaliz": 4498,
      "ecclesiast": 4499,
      "loquitur": 4500,
      "Prohib": 4501,
      "gentili": 4502,
      "nobil": 4503,
      "pendunt": 4504,
      "pecuniam": 4505,
      "inobedi": 4506,
      "inlicitis": 4507,
      "inponit": 4508,
      "inquirere": 4509,
      "rectores": 4510,
      "posteriores": 4511,
      "dissidentes": 4512,
      "sustentent": 4513,
      "modicas": 4514,
      "uicinos": 4515,
      "monacho": 4516,
      "monachus": 4517,
      "diabolo": 4518,
      "retract": 4519,
      "Accusatores": 4520,
      "nesci": 4521,
      "acriter": 4522,
      "gr̅a": 4523,
      "prophetam": 4524,
      "Damasi": 4525,
      "careat": 4526,
      "labor": 4527,
      "pallii": 4528,
      "ustini": 4529,
      "secularibus": 4530,
      "occurrere": 4531,
      "exceptis": 4532,
      "extiterit": 4533,
      "auxilio": 4534,
      "increpatione": 4535,
      "partes": 4536,
      "substantia": 4537,
      "precepit": 4538,
      "remedium": 4539,
      "uestimentis": 4540,
      "uacuum": 4541,
      "anathematizetur": 4542,
      "inuasit": 4543,
      "arbitr": 4544,
      "condemn": 4545,
      "conuincatur": 4546,
      "temptet": 4547,
      "Augustini": 4548,
      "Alexandri": 4549,
      "Calcidonensi": 4550,
      "Calisti": 4551,
      "Diebus": 4552,
      "Iubemur": 4553,
      "Iulii": 4554,
      "Illud": 4555,
      "Precipimus": 4556,
      "Rotomag": 4557,
      "eicit": 4558,
      "offerant": 4559,
      "uuamb": 4560,
      "uissent": 4561,
      "inmund": 4562,
      "inciderit": 4563,
      "pristin": 4564,
      "ariminensi": 4565,
      "uerecundia": 4566,
      "uiennam": 4567,
      "egypt": 4568,
      "obtinere": 4569,
      "obruatur": 4570,
      "incorrig": 4571,
      "corripi": 4572,
      "scitote": 4573,
      "despecta": 4574,
      "hortamur": 4575,
      "clęricis": 4576,
      "heremitę": 4577,
      "plurimos": 4578,
      "collegio": 4579,
      "scandala": 4580,
      "difficiliores": 4581,
      "sanguinis": 4582,
      "ADRAGESIMA": 4583,
      "dęmon": 4584,
      "prodest": 4585,
      "exēpl": 4586,
      "abstergamus": 4587,
      "Arelatensi": 4588,
      "Braggarensi": 4589,
      "Erphesfurt": 4590,
      "Euaristi": 4591,
      "Flecto": 4592,
      "Oportet": 4593,
      "Presbiter": 4594,
      "Prędic": 4595,
      "Trib": 4596,
      "cemodi": 4597,
      "centuriensi": 4598,
      "censemus": 4599,
      "kyrie": 4600,
      "mysteria": 4601,
      "machin": 4602,
      "raro": 4603,
      "sincer": 4604,
      "trecentos": 4605,
      "inposuerat": 4606,
      "innupta": 4607,
      "abiectione": 4608,
      "asphem": 4609,
      "claudere": 4610,
      "hen": 4611,
      "CIM": 4612,
      "DECIM": 4613,
      "RI": 4614,
      "nouo": 4615,
      "Pƀ": 4616,
      "San": 4617,
      "US": 4618,
      "cat": 4619,
      "fri": 4620,
      "gentium": 4621,
      "ha": 4622,
      "ioc": 4623,
      "ideat": 4624,
      "kal": 4625,
      "mͦ": 4626,
      "men": 4627,
      "meretur": 4628,
      "nibus": 4629,
      "pent": 4630,
      "ren": 4631,
      "rerū": 4632,
      "sur": 4633,
      "t᷒": 4634,
      "tel": 4635,
      "u᷒": 4636,
      "vm": 4637,
      "̅s": 4638,
      "̅tū": 4639,
      "ꝑpet": 4640,
      "ꝑfect": 4641,
      "ꝑsoluat": 4642,
      "ꝓferant": 4643,
      "": 4644,
      "eremus": 4645,
      "inre": 4646,
      "inuisibilium": 4647,
      "atorū": 4648,
      "ittere": 4649,
      "en᷒": 4650,
      "etate": 4651,
      "ora": 4652,
      "icum": 4653,
      "icū": 4654,
      "icium": 4655,
      "lio": 4656,
      "dec̅": 4657,
      "deuoc": 4658,
      "utebatur": 4659,
      "secum": 4660,
      "pron": 4661,
      "prol": 4662,
      "prot": 4663,
      "priv": 4664,
      "dii": 4665,
      "ulorum": 4666,
      "conuen": 4667,
      "conuenire": 4668,
      "conced": 4669,
      "concup": 4670,
      "consist": 4671,
      "aduit": 4672,
      "uerum": 4673,
      "ap̅": 4674,
      "unā": 4675,
      "absent": 4676,
      "aliqđ": 4677,
      "c̅uinc": 4678,
      "c̅cord": 4679,
      "c̅tumat": 4680,
      "nonam": 4681,
      "nonā": 4682,
      "percus": 4683,
      "perfect": 4684,
      "persist": 4685,
      "percutitis": 4686,
      "terram": 4687,
      "endā": 4688,
      "uideat": 4689,
      "proferant": 4690,
      "proximo": 4691,
      "properat": 4692,
      "prouintia": 4693,
      "au̅": 4694,
      "unti": 4695,
      "fidē": 4696,
      "uitio": 4697,
      "issione": 4698,
      "Quib": 4699,
      "Quibus": 4700,
      "Qualit̅": 4701,
      "p̄m": 4702,
      "habita": 4703,
      "habuerunt": 4704,
      "dominico": 4705,
      "serunt": 4706,
      "parit̅": 4707,
      "parentum": 4708,
      "esso": 4709,
      "essent": 4710,
      "praed": 4711,
      "concilii": 4712,
      "common": 4713,
      "commissos": 4714,
      "subter": 4715,
      "ęccꝉarū": 4716,
      "ueniatur": 4717,
      "edit": 4718,
      "synodalem": 4719,
      "sanctis": 4720,
      "om̅iū": 4721,
      "tamenta": 4722,
      "cōmon": 4723,
      "sumpt": 4724,
      "mai": 4725,
      "crim̅": 4726,
      "damnat": 4727,
      "ęcclesiarum": 4728,
      "decretum": 4729,
      "uicarium": 4730,
      "apꝉos": 4731,
      "genitum": 4732,
      "celebrantur": 4733,
      "celebrentur": 4734,
      "apostolos": 4735,
      "statuer̅": 4736,
      "postquam": 4737,
      "fidelium": 4738,
      "rauerit": 4739,
      "eccꝉa": 4740,
      "nr̅orū": 4741,
      "precip": 4742,
      "pellant": 4743,
      "pellantur": 4744,
      "superbię": 4745,
      "proprię": 4746,
      "proprias": 4747,
      "propriet": 4748,
      "honorē": 4749,
      "constitutus": 4750,
      "constitutos": 4751,
      "temptamenta": 4752,
      "uestro": 4753,
      "rogatus": 4754,
      "praecibus": 4755,
      "propinqu": 4756,
      "plebib": 4757,
      "presbiterii": 4758,
      "capitulum": 4759,
      "hominum": 4760,
      "hominū": 4761,
      "sabbatorum": 4762,
      "natalem": 4763,
      "tenebr": 4764,
      "audac": 4765,
      "ꝓpriū": 4766,
      "ꝓprię": 4767,
      "ꝓpriā": 4768,
      "praesentia": 4769,
      "uiuendum": 4770,
      "priuet": 4771,
      "priuata": 4772,
      "aduersum": 4773,
      "meam": 4774,
      "cidon": 4775,
      "pontificum": 4776,
      "pontificē": 4777,
      "matrem": 4778,
      "continentię": 4779,
      "diaconum": 4780,
      "ualebit": 4781,
      "principalem": 4782,
      "bonū": 4783,
      "bonorum": 4784,
      "coniugali": 4785,
      "qualiter": 4786,
      "qualit̅": 4787,
      "romanum": 4788,
      "romanū": 4789,
      "amenta": 4790,
      "amentum": 4791,
      "pͥu": 4792,
      "pestem": 4793,
      "ꝓbent": 4794,
      "clericum": 4795,
      "clericū": 4796,
      "consecrationis": 4797,
      "communicare": 4798,
      "modū": 4799,
      "traduntur": 4800,
      "c̅stitutū": 4801,
      "pertinent": 4802,
      "uideant": 4803,
      "uideatur": 4804,
      "carnē": 4805,
      "damnationis": 4806,
      "tēptauerit": 4807,
      "sequeretur": 4808,
      "successoribus": 4809,
      "ꝑtinent": 4810,
      "constituerunt": 4811,
      "spons": 4812,
      "totamque": 4813,
      "ducat": 4814,
      "xp̅ianos": 4815,
      "christianos": 4816,
      "constrictus": 4817,
      "p̄cipit": 4818,
      "scꝉares": 4819,
      "catholicorum": 4820,
      "p̄dictū": 4821,
      "personę": 4822,
      "praedictum": 4823,
      "misericorditer": 4824,
      "c̅tingere": 4825,
      "tēpora": 4826,
      "tāquā": 4827,
      "sollempnia": 4828,
      "suscipiatur": 4829,
      "exigentibus": 4830,
      "ꝑsonę": 4831,
      "c̅iugati": 4832,
      "dominicorum": 4833,
      "ecclesiam": 4834,
      "conseruatione": 4835,
      "contempserit": 4836,
      "eoꝝq": 4837,
      "tollant": 4838,
      "tollantur": 4839,
      "saeculares": 4840,
      "disciplinam": 4841,
      "disciplinā": 4842,
      "ouib": 4843,
      "inueniunt": 4844,
      "inueniuntur": 4845,
      "pƀrii": 4846,
      "iubentibus": 4847,
      "signum": 4848,
      "terminos": 4849,
      "testimonium": 4850,
      "testimoniū": 4851,
      "uesperam": 4852,
      "uniuerso": 4853,
      "pęnitentiam": 4854,
      "pęnitentiā": 4855,
      "custodiantur": 4856,
      "adee̅": 4857,
      "diiudicatus": 4858,
      "summos": 4859,
      "summopere": 4860,
      "priuilegium": 4861,
      "calcidon": 4862,
      "lauat": 4863,
      "spaciū": 4864,
      "restituant": 4865,
      "transigantur": 4866,
      "eundemque": 4867,
      "frequenter": 4868,
      "contemn": 4869,
      "contempt": 4870,
      "contemnunt": 4871,
      "prohibemus": 4872,
      "spirituum": 4873,
      "gloria": 4874,
      "ꝓpͥa": 4875,
      "promot": 4876,
      "Quapropter": 4877,
      "uespertina": 4878,
      "qᷓdragesima": 4879,
      "suspectum": 4880,
      "nunti": 4881,
      "p̄sentia": 4882,
      "commendant": 4883,
      "commessationes": 4884,
      "hannes": 4885,
      "gentiū": 4886,
      "nāq": 4887,
      "inuicē": 4888,
      "prioris": 4889,
      "sanctificat": 4890,
      "subtrahunt": 4891,
      "subtrahuntur": 4892,
      "corruptus": 4893,
      "Iohannes": 4894,
      "patiantur": 4895,
      "Statuimus": 4896,
      "pedibus": 4897,
      "quacumque": 4898,
      "quocumque": 4899,
      "utraq": 4900,
      "utraque": 4901,
      "austeram": 4902,
      "confitendo": 4903,
      "contritione": 4904,
      "persecutionem": 4905,
      "sollēpnia": 4906,
      "computantur": 4907,
      "respersi": 4908,
      "sacram̅ta": 4909,
      "ꝓphetā": 4910,
      "eandem": 4911,
      "inopoli": 4912,
      "coquuntur": 4913,
      "arduam": 4914,
      "frugum": 4915,
      "subnotatur": 4916,
      "natiuitatem": 4917,
      "Nequaquam": 4918,
      "funditus": 4919,
      "triduanum": 4920,
      "Abstinendum": 4921,
      "querelam": 4922,
      "Cabillonensi": 4923,
      "firmet": 4924,
      "concubinam": 4925,
      "praepar": 4926,
      "optamus": 4927,
      "decembre": 4928,
      "eiectus": 4929,
      "Prohibeantur": 4930,
      "Rotomagensi": 4931,
      "Presbiteri": 4932,
      "Pƀri": 4933,
      "kalendas": 4934,
      "privetur": 4935,
      "persistendum": 4936,
      "TI": 4937,
      "testamento": 4938,
      "Heinricus": 4939,
      "cyr": 4940,
      "rad": 4941,
      "uon": 4942,
      "TERTI": 4943,
      "uonrad": 4944,
      "16": 4945,
      "19": 4946,
      "916": 4947,
      "At": 4948,
      "Aud": 4949,
      "Anic": 4950,
      "BS": 4951,
      "Bis": 4952,
      "Bur": 4953,
      "Cor": 4954,
      "Cel": 4955,
      "Cau": 4956,
      "Del": 4957,
      "Das": 4958,
      "Dil": 4959,
      "Eg": 4960,
      "Gel": 4961,
      "Galli": 4962,
      "Hor": 4963,
      "Hic": 4964,
      "Hab": 4965,
      "Hoff": 4966,
      "Il": 4967,
      "Ita": 4968,
      "Itali": 4969,
      "Lu": 4970,
      "Lic": 4971,
      "Mü": 4972,
      "Man": 4973,
      "Nolite": 4974,
      "Or": 4975,
      "OBS": 4976,
      "Po": 4977,
      "Pat": 4978,
      "Pol": 4979,
      "Pari": 4980,
      "Rep": 4981,
      "Rih": 4982,
      "Reli": 4983,
      "Se": 4984,
      "Sy": 4985,
      "Sit": 4986,
      "Sug": 4987,
      "TA": 4988,
      "TE": 4989,
      "Tur": 4990,
      "Test": 4991,
      "Tex": 4992,
      "Titul": 4993,
      "TES": 4994,
      "Un": 4995,
      "Ver": 4996,
      "Vor": 4997,
      "Val": 4998,
      "Worm": 4999,
      "aquā": 5000,
      "auerint": 5001,
      "aedi": 5002,
      "aueris": 5003,
      "be": 5004,
      "br": 5005,
      "bit": 5006,
      "bet": 5007,
      "best": 5008,
      "bri": 5009,
      "cen": 5010,
      "cia": 5011,
      "corum": 5012,
      "cedi": 5013,
      "ceatur": 5014,
      "der": 5015,
      "dus": 5016,
      "dari": 5017,
      "danda": 5018,
      "dando": 5019,
      "dissim": 5020,
      "derunt": 5021,
      "dantes": 5022,
      "dabo": 5023,
      "euer": 5024,
      "eā": 5025,
      "euerit": 5026,
      "euit": 5027,
      "earum": 5028,
      "earū": 5029,
      "euid": 5030,
      "euseb": 5031,
      "fit": 5032,
      "fab": 5033,
      "fel": 5034,
      "finit": 5035,
      "felix": 5036,
      "gam": 5037,
      "gata": 5038,
      "ho": 5039,
      "hel": 5040,
      "horū": 5041,
      "hensi": 5042,
      "hitus": 5043,
      "hano": 5044,
      "histo": 5045,
      "historia": 5046,
      "idi": 5047,
      "iri": 5048,
      "iendo": 5049,
      "ierint": 5050,
      "kret": 5051,
      "korn": 5052,
      "lag": 5053,
      "litas": 5054,
      "lang": 5055,
      "mur": 5056,
      "mil": 5057,
      "morum": 5058,
      "matur": 5059,
      "morū": 5060,
      "meo": 5061,
      "mann": 5062,
      "meis": 5063,
      "malis": 5064,
      "mediū": 5065,
      "nu": 5066,
      "nib": 5067,
      "nc̅": 5068,
      "nas": 5069,
      "nud": 5070,
      "nch": 5071,
      "nata": 5072,
      "nati": 5073,
      "nasc": 5074,
      "nimis": 5075,
      "norm": 5076,
      "nodus": 5077,
      "oquia": 5078,
      "oedi": 5079,
      "oedire": 5080,
      "pti": 5081,
      "pito": 5082,
      "pelli": 5083,
      "pimenii": 5084,
      "rus": 5085,
      "rur": 5086,
      "rere": 5087,
      "roc": 5088,
      "rio": 5089,
      "rau": 5090,
      "rint": 5091,
      "rationis": 5092,
      "rabil": 5093,
      "radic": 5094,
      "sat": 5095,
      "set": 5096,
      "sia": 5097,
      "sap": 5098,
      "soc": 5099,
      "sob": 5100,
      "sionem": 5101,
      "soli": 5102,
      "sionē": 5103,
      "sinit": 5104,
      "sardicensi": 5105,
      "sessione": 5106,
      "tre": 5107,
      "tos": 5108,
      "tec": 5109,
      "tari": 5110,
      "tuis": 5111,
      "taliter": 5112,
      "talem": 5113,
      "tstu": 5114,
      "tulit": 5115,
      "uim": 5116,
      "uad": 5117,
      "uag": 5118,
      "uatione": 5119,
      "uicis": 5120,
      "uente": 5121,
      "uentur": 5122,
      "uendum": 5123,
      "uuin": 5124,
      "uim᷒": 5125,
      "uisset": 5126,
      "uariis": 5127,
      "uendere": 5128,
      "vt": 5129,
      "v̄": 5130,
      "ver": 5131,
      "von": 5132,
      "veniant": 5133,
      "xti": 5134,
      "xerint": 5135,
      "xerat": 5136,
      "ühe": 5137,
      "ęn": 5138,
      "ętat": 5139,
      "ębri": 5140,
      "ꝑuenire": 5141,
      "ꝑhib": 5142,
      "ꝑuers": 5143,
      "ꝑcipere": 5144,
      "ꝑmitt": 5145,
      "ꝑuenit": 5146,
      "ꝑegr": 5147,
      "ꝑturb": 5148,
      "ꝑmanere": 5149,
      "ꝓut": 5150,
      "ꝓuis": 5151,
      "ꝓfect": 5152,
      "ꝓdest": 5153,
      "Ꝗd": 5154,
      "": 5155,
      "ister": 5156,
      "isquis": 5157,
      "erauerit": 5158,
      "ersa": 5159,
      "eradic": 5160,
      "erphesfurt": 5161,
      "inus": 5162,
      "inet": 5163,
      "ines": 5164,
      "iniu": 5165,
      "inia": 5166,
      "inquis": 5167,
      "inpl": 5168,
      "insan": 5169,
      "infer": 5170,
      "inport": 5171,
      "inir": 5172,
      "incipi": 5173,
      "inexcus": 5174,
      "inspect": 5175,
      "inabit": 5176,
      "infidelis": 5177,
      "inhonor": 5178,
      "inlxx": 5179,
      "atię": 5180,
      "attemptet": 5181,
      "itio": 5182,
      "itię": 5183,
      "itionis": 5184,
      "itung": 5185,
      "ust": 5186,
      "usu": 5187,
      "querit": 5188,
      "quendam": 5189,
      "one": 5190,
      "eni": 5191,
      "enę": 5192,
      "ete": 5193,
      "etatem": 5194,
      "esu": 5195,
      "es̅": 5196,
      "esū": 5197,
      "esion": 5198,
      "umpserit": 5199,
      "umenta": 5200,
      "anz": 5201,
      "anis": 5202,
      "anon": 5203,
      "anull": 5204,
      "anop": 5205,
      "orationib": 5206,
      "orth": 5207,
      "icus": 5208,
      "icere": 5209,
      "icui": 5210,
      "deunt": 5211,
      "deuen": 5212,
      "dep̄": 5213,
      "dedign": 5214,
      "deici": 5215,
      "deitatem": 5216,
      "depere": 5217,
      "dederint": 5218,
      "reum": 5219,
      "reū": 5220,
      "reuit": 5221,
      "relic": 5222,
      "repar": 5223,
      "recl": 5224,
      "remo": 5225,
      "repell": 5226,
      "rexit": 5227,
      "rexerit": 5228,
      "reuocari": 5229,
      "recedere": 5230,
      "utatur": 5231,
      "utione": 5232,
      "utinas": 5233,
      "epꝉam": 5234,
      "iua": 5235,
      "iuuen": 5236,
      "iae": 5237,
      "iact": 5238,
      "iauerit": 5239,
      "ialibus": 5240,
      "iabis": 5241,
      "entiū": 5242,
      "osi": 5243,
      "osmetropolitan": 5244,
      "ostendere": 5245,
      "imit": 5246,
      "imitat": 5247,
      "immin": 5248,
      "imini": 5249,
      "immut": 5250,
      "implic": 5251,
      "immorari": 5252,
      "coepiscopo": 5253,
      "coeperit": 5254,
      "amur": 5255,
      "amore": 5256,
      "amittere": 5257,
      "amissione": 5258,
      "urg": 5259,
      "uram": 5260,
      "urā": 5261,
      "secus": 5262,
      "acquis": 5263,
      "acta": 5264,
      "actis": 5265,
      "accipi": 5266,
      "acund": 5267,
      "preter": 5268,
      "iber": 5269,
      "dif": 5270,
      "diis": 5271,
      "dius": 5272,
      "didic": 5273,
      "diendis": 5274,
      "dixerit": 5275,
      "em̅": 5276,
      "emerg": 5277,
      "emulis": 5278,
      "arit": 5279,
      "araus": 5280,
      "arceri": 5281,
      "ulū": 5282,
      "ulcus": 5283,
      "ulto": 5284,
      "cont": 5285,
      "conatus": 5286,
      "concep": 5287,
      "constat": 5288,
      "concul": 5289,
      "consens": 5290,
      "consensus": 5291,
      "contigerit": 5292,
      "contendunt": 5293,
      "consanguine": 5294,
      "consubstantia": 5295,
      "antib": 5296,
      "antec": 5297,
      "antex": 5298,
      "adqui": 5299,
      "adri": 5300,
      "admitti": 5301,
      "addita": 5302,
      "ecebr": 5303,
      "uerse": 5304,
      "uerant": 5305,
      "uerbo": 5306,
      "apđ": 5307,
      "aperi": 5308,
      "unitas": 5309,
      "unicui": 5310,
      "abis": 5311,
      "abitur": 5312,
      "abimini": 5313,
      "cię": 5314,
      "cium": 5315,
      "sio": 5316,
      "omi": 5317,
      "quilibet": 5318,
      "esto": 5319,
      "stet": 5320,
      "stir": 5321,
      "stulto": 5322,
      "episse": 5323,
      "olis": 5324,
      "altare": 5325,
      "altheim": 5326,
      "altari": 5327,
      "episcopatu": 5328,
      "episcopales": 5329,
      "aliquibus": 5330,
      "alioꝝ": 5331,
      "aliquorum": 5332,
      "dicere": 5333,
      "dicatur": 5334,
      "dicim᷒": 5335,
      "dicendę": 5336,
      "dicebatur": 5337,
      "eregr": 5338,
      "octo": 5339,
      "oculi": 5340,
      "occup": 5341,
      "elles": 5342,
      "eleu": 5343,
      "electi": 5344,
      "eloquia": 5345,
      "c̅tr": 5346,
      "c̅uic": 5347,
      "c̅ced": 5348,
      "c̅tēp": 5349,
      "c̅ueniant": 5350,
      "c̅tradic": 5351,
      "c̅suet": 5352,
      "c̅sul": 5353,
      "assur": 5354,
      "nona": 5355,
      "iusta": 5356,
      "iustum": 5357,
      "iustū": 5358,
      "exc": 5359,
      "exar": 5360,
      "exec": 5361,
      "exper": 5362,
      "exstit": 5363,
      "expet": 5364,
      "extran": 5365,
      "excut": 5366,
      "expetunt": 5367,
      "exstir": 5368,
      "ilis": 5369,
      "perhib": 5370,
      "peruers": 5371,
      "perire": 5372,
      "persoluatur": 5373,
      "peruenit": 5374,
      "perturb": 5375,
      "permanere": 5376,
      "persuadebat": 5377,
      "perueniatur": 5378,
      "odit": 5379,
      "Dekret": 5380,
      "itatib": 5381,
      "tratus": 5382,
      "trunc": 5383,
      "otiens": 5384,
      "otiensi": 5385,
      "endia": 5386,
      "endatis": 5387,
      "uiat": 5388,
      "uiris": 5389,
      "uidet": 5390,
      "profic": 5391,
      "prouis": 5392,
      "profect": 5393,
      "crips": 5394,
      "cta": 5395,
      "intuit": 5396,
      "intell": 5397,
      "egerint": 5398,
      "debeas": 5399,
      "deberemus": 5400,
      "debuerant": 5401,
      "ueritas": 5402,
      "plerum": 5403,
      "obsc": 5404,
      "obstin": 5405,
      "obtineant": 5406,
      "obnox": 5407,
      "obierint": 5408,
      "oboedire": 5409,
      "ordina": 5410,
      "ordinat": 5411,
      "ordinatum": 5412,
      "ordinauerit": 5413,
      "ordinatū": 5414,
      "ordinandis": 5415,
      "uens": 5416,
      "uenisse": 5417,
      "sedux": 5418,
      "seditiones": 5419,
      "omino": 5420,
      "andę": 5421,
      "ander": 5422,
      "andas": 5423,
      "sacris": 5424,
      "posteris": 5425,
      "Qualis": 5426,
      "Quales": 5427,
      "Quisquis": 5428,
      "lesos": 5429,
      "enserint": 5430,
      "iudicis": 5431,
      "iudicib": 5432,
      "iudicii": 5433,
      "iudicibus": 5434,
      "iudicari": 5435,
      "iudicandi": 5436,
      "iudicauerit": 5437,
      "omnē": 5438,
      "ueluti": 5439,
      "quęrit": 5440,
      "quęcumque": 5441,
      "quęcūq": 5442,
      "quęrel": 5443,
      "ibiq": 5444,
      "ibique": 5445,
      "p̄cib": 5446,
      "p̄uid": 5447,
      "haberi": 5448,
      "habuisse": 5449,
      "habebunt": 5450,
      "incant": 5451,
      "ectum": 5452,
      "dominationis": 5453,
      "entias": 5454,
      "facti": 5455,
      "factis": 5456,
      "facili": 5457,
      "parc": 5458,
      "pars": 5459,
      "parare": 5460,
      "partis": 5461,
      "partum": 5462,
      "partic": 5463,
      "solent": 5464,
      "soluta": 5465,
      "solueris": 5466,
      "essis": 5467,
      "esserit": 5468,
      "illus": 5469,
      "illam": 5470,
      "illoꝝ": 5471,
      "fren": 5472,
      "fran": 5473,
      "frag": 5474,
      "frühe": 5475,
      "comprouincia": 5476,
      "completa": 5477,
      "commemoratio": 5478,
      "disse": 5479,
      "discus": 5480,
      "dispens": 5481,
      "disposit": 5482,
      "ficos": 5483,
      "temper": 5484,
      "regere": 5485,
      "regerit": 5486,
      "regionis": 5487,
      "reguntur": 5488,
      "regni": 5489,
      "regesto": 5490,
      "mina": 5491,
      "minoribus": 5492,
      "minimę": 5493,
      "sublata": 5494,
      "sublim": 5495,
      "poni": 5496,
      "accusationes": 5497,
      "accusatum": 5498,
      "accusatū": 5499,
      "accusantium": 5500,
      "neop": 5501,
      "gress": 5502,
      "gratis": 5503,
      "iterato": 5504,
      "mun᷒": 5505,
      "cumq": 5506,
      "nosti": 5507,
      "quias": 5508,
      "quamquam": 5509,
      "quamcumque": 5510,
      "symon": 5511,
      "syno": 5512,
      "sacerdo": 5513,
      "seruos": 5514,
      "seruari": 5515,
      "seruiunt": 5516,
      "seruanda": 5517,
      "potum": 5518,
      "potū": 5519,
      "potuerint": 5520,
      "potuissent": 5521,
      "uisitatis": 5522,
      "uisitare": 5523,
      "quācūq": 5524,
      "resideat": 5525,
      "chof": 5526,
      "chard": 5527,
      "opus": 5528,
      "opprim": 5529,
      "opp̄s": 5530,
      "synodali": 5531,
      "synodale": 5532,
      "synodalia": 5533,
      "sanctus": 5534,
      "sanctitatis": 5535,
      "petenti": 5536,
      "xxi": 5537,
      "xxxviii": 5538,
      "xxxviiii": 5539,
      "annū": 5540,
      "sacerdotem": 5541,
      "sacerdotium": 5542,
      "ligata": 5543,
      "ligaueris": 5544,
      "corros": 5545,
      "sc̅s": 5546,
      "sc̅itatis": 5547,
      "legib": 5548,
      "legunt": 5549,
      "quodcumque": 5550,
      "trah": 5551,
      "decer": 5552,
      "decep": 5553,
      "decē": 5554,
      "metas": 5555,
      "om̅ibus": 5556,
      "quoꝝ": 5557,
      "quoad": 5558,
      "libell": 5559,
      "cōpellat": 5560,
      "cōmemoratio": 5561,
      "cōpellant": 5562,
      "astis": 5563,
      "sump": 5564,
      "sum᷒": 5565,
      "summo": 5566,
      "iora": 5567,
      "iorib": 5568,
      "canis": 5569,
      "maneat": 5570,
      "istud": 5571,
      "eriis": 5572,
      "caret": 5573,
      "carere": 5574,
      "caritat": 5575,
      "carne": 5576,
      "carmina": 5577,
      "scis": 5578,
      "scimus": 5579,
      "scitis": 5580,
      "uoce": 5581,
      "uocandis": 5582,
      "maximo": 5583,
      "maiorum": 5584,
      "primis": 5585,
      "primate": 5586,
      "primatē": 5587,
      "primatibus": 5588,
      "metropoli": 5589,
      "iret": 5590,
      "irret": 5591,
      "iracund": 5592,
      "altercant": 5593,
      "canone": 5594,
      "bire": 5595,
      "bigam": 5596,
      "Insuper": 5597,
      "Insuꝑ": 5598,
      "ingen": 5599,
      "echonom": 5600,
      "metropolitanorū": 5601,
      "metropolitanoꝝ": 5602,
      "eidem": 5603,
      "eiecti": 5604,
      "presp": 5605,
      "abstulit": 5606,
      "currit": 5607,
      "uoluerunt": 5608,
      "uolumus": 5609,
      "uoluistis": 5610,
      "fratris": 5611,
      "fratrū": 5612,
      "risse": 5613,
      "parroechian": 5614,
      "decreti": 5615,
      "obseruant": 5616,
      "interfect": 5617,
      "interfecerit": 5618,
      "intermissione": 5619,
      "interiori": 5620,
      "qđcūq": 5621,
      "dievii": 5622,
      "toci": 5623,
      "uicos": 5624,
      "uicina": 5625,
      "redim": 5626,
      "reddi": 5627,
      "reditum": 5628,
      "cęnam": 5629,
      "fort": 5630,
      "foret": 5631,
      "placuerit": 5632,
      "placitum": 5633,
      "placitū": 5634,
      "scrib": 5635,
      "oportere": 5636,
      "oportunitas": 5637,
      "apꝉo": 5638,
      "docuerit": 5639,
      "docuisse": 5640,
      "documenta": 5641,
      "genere": 5642,
      "genius": 5643,
      "sacram": 5644,
      "sacrileg": 5645,
      "diuino": 5646,
      "spec": 5647,
      "dignam": 5648,
      "dignā": 5649,
      "dignitatem": 5650,
      "dignitatē": 5651,
      "odox": 5652,
      "celebret": 5653,
      "celebretur": 5654,
      "celebrarent": 5655,
      "celebrarentur": 5656,
      "abstineat": 5657,
      "tantę": 5658,
      "tantes": 5659,
      "tantam": 5660,
      "athensi": 5661,
      "apostolo": 5662,
      "postquā": 5663,
      "fidelibus": 5664,
      "deser": 5665,
      "festi": 5666,
      "festinas": 5667,
      "mora": 5668,
      "moris": 5669,
      "moribus": 5670,
      "morantur": 5671,
      "mortui": 5672,
      "actę": 5673,
      "nr̅os": 5674,
      "precipiant": 5675,
      "testam̅": 5676,
      "absentia": 5677,
      "illiric": 5678,
      "laici": 5679,
      "scripto": 5680,
      "scriptum": 5681,
      "scriptū": 5682,
      "proprii": 5683,
      "proprios": 5684,
      "uindic": 5685,
      "uindicta": 5686,
      "constituto": 5687,
      "constitutū": 5688,
      "criminatione": 5689,
      "criminati": 5690,
      "criminatio": 5691,
      "criminosis": 5692,
      "detulerit": 5693,
      "igium": 5694,
      "rumore": 5695,
      "remus": 5696,
      "uester": 5697,
      "uestrum": 5698,
      "uestros": 5699,
      "euangeli": 5700,
      "iniqu": 5701,
      "faciant": 5702,
      "faciendū": 5703,
      "ieiunioiiii": 5704,
      "septu": 5705,
      "noctur": 5706,
      "abbatis": 5707,
      "rigorem": 5708,
      "rigorē": 5709,
      "ihesu": 5710,
      "nostros": 5711,
      "capit": 5712,
      "capite": 5713,
      "passus": 5714,
      "xp̅s": 5715,
      "rectę": 5716,
      "rectam": 5717,
      "rectio": 5718,
      "simbol": 5719,
      "huiuscemodi": 5720,
      "homini": 5721,
      "hominibus": 5722,
      "officia": 5723,
      "officii": 5724,
      "pulsum": 5725,
      "pulpito": 5726,
      "animarum": 5727,
      "secret": 5728,
      "eumque": 5729,
      "pƀro": 5730,
      "tatu": 5731,
      "Quid": 5732,
      "uentus": 5733,
      "uentrem": 5734,
      "uentrē": 5735,
      "uigor": 5736,
      "timor": 5737,
      "xlme": 5738,
      "hęrere": 5739,
      "natale": 5740,
      "numerum": 5741,
      "tuam": 5742,
      "tuā": 5743,
      "teneant": 5744,
      "tenore": 5745,
      "reuerti": 5746,
      "cuidam": 5747,
      "cuidā": 5748,
      "retalis": 5749,
      "retinere": 5750,
      "retulerit": 5751,
      "turp": 5752,
      "ꝓprias": 5753,
      "ꝓprios": 5754,
      "uirt": 5755,
      "uirib": 5756,
      "uiribus": 5757,
      "misse": 5758,
      "uxor": 5759,
      "uxore": 5760,
      "uxorē": 5761,
      "praesent": 5762,
      "domo": 5763,
      "iurauit": 5764,
      "issimis": 5765,
      "maiora": 5766,
      "maiores": 5767,
      "praeuid": 5768,
      "nemin": 5769,
      "nemesion": 5770,
      "peccator": 5771,
      "uuldeo": 5772,
      "alienum": 5773,
      "alienū": 5774,
      "alienas": 5775,
      "alienare": 5776,
      "discere": 5777,
      "discessit": 5778,
      "magisq": 5779,
      "magisque": 5780,
      "ęcclesiasticam": 5781,
      "humana": 5782,
      "hostem": 5783,
      "hostis": 5784,
      "hoste": 5785,
      "hostē": 5786,
      "lacer": 5787,
      "uiuunt": 5788,
      "uiuentes": 5789,
      "diligit": 5790,
      "diligent̅": 5791,
      "audiri": 5792,
      "eūq": 5793,
      "semel": 5794,
      "int̅rog": 5795,
      "int̅fecerit": 5796,
      "credit": 5797,
      "credendum": 5798,
      "credendū": 5799,
      "accusatori": 5800,
      "accusatoris": 5801,
      "c̅cilia": 5802,
      "cuiusdam": 5803,
      "meli": 5804,
      "medic": 5805,
      "upatus": 5806,
      "hortare": 5807,
      "restaur": 5808,
      "singuli": 5809,
      "circo": 5810,
      "circum": 5811,
      "circū": 5812,
      "transmut": 5813,
      "transmutatione": 5814,
      "pontifice": 5815,
      "pontificatus": 5816,
      "matre": 5817,
      "matris": 5818,
      "matutinas": 5819,
      "letania": 5820,
      "mutet": 5821,
      "tangit": 5822,
      "ur̅m": 5823,
      "ur̅os": 5824,
      "continentiam": 5825,
      "filiis": 5826,
      "patroc": 5827,
      "diaconū": 5828,
      "uigiliarum": 5829,
      "uigiliarū": 5830,
      "lędit": 5831,
      "ualde": 5832,
      "Nulla": 5833,
      "bonam": 5834,
      "fugit": 5835,
      "fugere": 5836,
      "fugiunt": 5837,
      "fugisse": 5838,
      "cuncta": 5839,
      "nouit": 5840,
      "eligat": 5841,
      "religios": 5842,
      "electos": 5843,
      "electiones": 5844,
      "probatione": 5845,
      "probabilis": 5846,
      "ministris": 5847,
      "romanam": 5848,
      "nicena": 5849,
      "epistolam": 5850,
      "iensis": 5851,
      "nolentibus": 5852,
      "pͥma": 5853,
      "qᷓlitas": 5854,
      "uacare": 5855,
      "uacante": 5856,
      "uacantem": 5857,
      "uacantē": 5858,
      "ꝓbatione": 5859,
      "ꝓbabilis": 5860,
      "anathe": 5861,
      "regularit̅": 5862,
      "quicquam": 5863,
      "quicquā": 5864,
      "consecratus": 5865,
      "consecratio": 5866,
      "quirendū": 5867,
      "affer": 5868,
      "affric": 5869,
      "cetero": 5870,
      "modest": 5871,
      "escente": 5872,
      "cognitione": 5873,
      "cognitionem": 5874,
      "cognitionē": 5875,
      "appellent": 5876,
      "elegimus": 5877,
      "tradit": 5878,
      "plicii": 5879,
      "corrigatur": 5880,
      "corrigenda": 5881,
      "canonicā": 5882,
      "uoluntatis": 5883,
      "publice": 5884,
      "publico": 5885,
      "publicam": 5886,
      "publicā": 5887,
      "c̅stituti": 5888,
      "carnib": 5889,
      "carnibus": 5890,
      "carnales": 5891,
      "damnari": 5892,
      "damnatione": 5893,
      "ausu": 5894,
      "poen": 5895,
      "infamatis": 5896,
      "infamato": 5897,
      "recipiant": 5898,
      "recipiendis": 5899,
      "ricida": 5900,
      "dubiis": 5901,
      "decreuerit": 5902,
      "neglegit": 5903,
      "singularū": 5904,
      "paucis": 5905,
      "ambitu": 5906,
      "accepit": 5907,
      "existant": 5908,
      "successorem": 5909,
      "successorē": 5910,
      "constitu": 5911,
      "constitui": 5912,
      "doctor": 5913,
      "doctorum": 5914,
      "doctorē": 5915,
      "praecipimus": 5916,
      "Ancirano": 5917,
      "furore": 5918,
      "marito": 5919,
      "mariti": 5920,
      "uota": 5921,
      "inuitati": 5922,
      "sexaginta": 5923,
      "ibilem": 5924,
      "herbas": 5925,
      "ducitur": 5926,
      "archiepiscopi": 5927,
      "archiep̅i": 5928,
      "nitios": 5929,
      "opera": 5930,
      "paulum": 5931,
      "uehi": 5932,
      "indeq": 5933,
      "indeque": 5934,
      "tricenn": 5935,
      "responde": 5936,
      "scꝉi": 5937,
      "scꝉarib": 5938,
      "numerū": 5939,
      "formul": 5940,
      "formid": 5941,
      "quadragintadies": 5942,
      "mandata": 5943,
      "usurpare": 5944,
      "excusserit": 5945,
      "currant": 5946,
      "restitui": 5947,
      "Aurelius": 5948,
      "donare": 5949,
      "errore": 5950,
      "praesumpserit": 5951,
      "Arnol": 5952,
      "Arlatensi": 5953,
      "mercati": 5954,
      "deuotus": 5955,
      "utilitas": 5956,
      "utilitates": 5957,
      "coll": 5958,
      "collo": 5959,
      "accedant": 5960,
      "accedendum": 5961,
      "accedendū": 5962,
      "contentione": 5963,
      "integra": 5964,
      "regimina": 5965,
      "irration": 5966,
      "neglexerat": 5967,
      "memorię": 5968,
      "memoratos": 5969,
      "congregare": 5970,
      "congreganda": 5971,
      "xlmā": 5972,
      "gerere": 5973,
      "pacis": 5974,
      "uiduatis": 5975,
      "feriaiiii": 5976,
      "tēporis": 5977,
      "certa": 5978,
      "consentiat": 5979,
      "consentientibus": 5980,
      "Episcopo": 5981,
      "ERuatione": 5982,
      "nominis": 5983,
      "peiura": 5984,
      "induat": 5985,
      "induatur": 5986,
      "induosmetropolitan": 5987,
      "remanere": 5988,
      "acholit": 5989,
      "differendis": 5990,
      "c̅ꝓuincialibus": 5991,
      "trouers": 5992,
      "discipuli": 5993,
      "discipulis": 5994,
      "noscuntur": 5995,
      "fraterna": 5996,
      "impediatur": 5997,
      "examinari": 5998,
      "examinatione": 5999,
      "examinatos": 6000,
      "adium": 6001,
      "adire": 6002,
      "Interrogatio": 6003,
      "MAI": 6004,
      "breitung": 6005,
      "deneg": 6006,
      "dimiserit": 6007,
      "fuer̅": 6008,
      "panię": 6009,
      "inimicis": 6010,
      "pręsumat": 6011,
      "conuentione": 6012,
      "adulteros": 6013,
      "custodia": 6014,
      "reseruanda": 6015,
      "pulsat": 6016,
      "pulsos": 6017,
      "disciplinę": 6018,
      "baptism": 6019,
      "baptismo": 6020,
      "Ep̅o": 6021,
      "rebelles": 6022,
      "urbis": 6023,
      "dissenserint": 6024,
      "meritis": 6025,
      "ticię": 6026,
      "talibus": 6027,
      "uillulis": 6028,
      "iubemus": 6029,
      "solūmodo": 6030,
      "discretio": 6031,
      "discretione": 6032,
      "subiacuit": 6033,
      "graueris": 6034,
      "manifesta": 6035,
      "manifestabit": 6036,
      "dampnatus": 6037,
      "discutientes": 6038,
      "discutiendus": 6039,
      "cathedrā": 6040,
      "peregrina": 6041,
      "uniuersalis": 6042,
      "pęnitentię": 6043,
      "multa": 6044,
      "multo": 6045,
      "ammoneantur": 6046,
      "emendent": 6047,
      "incurrat": 6048,
      "temporis": 6049,
      "temporibus": 6050,
      "accusatorum": 6051,
      "accusatorū": 6052,
      "bibit": 6053,
      "calum": 6054,
      "leuitatis": 6055,
      "largiendo": 6056,
      "medio": 6057,
      "medium": 6058,
      "mediator": 6059,
      "inuitetur": 6060,
      "deposito": 6061,
      "reuelatum": 6062,
      "reuelatū": 6063,
      "estimant": 6064,
      "studeant": 6065,
      "studiis": 6066,
      "exponere": 6067,
      "exponentis": 6068,
      "exponendis": 6069,
      "sacrific": 6070,
      "decernere": 6071,
      "moyse": 6072,
      "spacio": 6073,
      "culpabil": 6074,
      "culpabilis": 6075,
      "salutem": 6076,
      "salutē": 6077,
      "detrim": 6078,
      "detract": 6079,
      "septemdies": 6080,
      "septembre": 6081,
      "possessiones": 6082,
      "restitutis": 6083,
      "mercede": 6084,
      "cęlebrari": 6085,
      "Stephano": 6086,
      "prauorum": 6087,
      "p̄sūpt": 6088,
      "ceteri": 6089,
      "cauta": 6090,
      "cautus": 6091,
      "fulta": 6092,
      "gesta": 6093,
      "ędific": 6094,
      "isce": 6095,
      "uiolentia": 6096,
      "Quaꝓpt̅": 6097,
      "disponere": 6098,
      "disponente": 6099,
      "cęteri": 6100,
      "diuersas": 6101,
      "festiuitatibus": 6102,
      "septiman": 6103,
      "definiri": 6104,
      "turba": 6105,
      "uespertinis": 6106,
      "uespertinum": 6107,
      "patriarchis": 6108,
      "qᷓdrages̅": 6109,
      "offendatur": 6110,
      "benedictio": 6111,
      "dinoscit": 6112,
      "sollicitudine": 6113,
      "sollicitudo": 6114,
      "saluatoris": 6115,
      "reprehens": 6116,
      "confirmetur": 6117,
      "cognouerit": 6118,
      "confessis": 6119,
      "Agathensi": 6120,
      "Omnis": 6121,
      "effect": 6122,
      "nobilitate": 6123,
      "pecuniā": 6124,
      "sinod": 6125,
      "sinodus": 6126,
      "ꝓpinqu": 6127,
      "inoboedi": 6128,
      "inponat": 6129,
      "declar": 6130,
      "recitare": 6131,
      "relinquitur": 6132,
      "priorib": 6133,
      "dilapid": 6134,
      "diębus": 6135,
      "consiliarii": 6136,
      "c̅uersationis": 6137,
      "exequias": 6138,
      "pleniter": 6139,
      "uendiderit": 6140,
      "uendicare": 6141,
      "posterius": 6142,
      "sustentatione": 6143,
      "residere": 6144,
      "residentes": 6145,
      "sanctificato": 6146,
      "modica": 6147,
      "scrutari": 6148,
      "diabolica": 6149,
      "detinuerit": 6150,
      "hostilitate": 6151,
      "cogitationes": 6152,
      "dubitatio": 6153,
      "cupiditate": 6154,
      "cupiditatis": 6155,
      "eundēq": 6156,
      "dimittere": 6157,
      "instructi": 6158,
      "instructus": 6159,
      "longe": 6160,
      "corruptores": 6161,
      "Iohanni": 6162,
      "sese": 6163,
      "requirunt": 6164,
      "seculi": 6165,
      "conuert": 6166,
      "conscius": 6167,
      "concessa": 6168,
      "concessum": 6169,
      "c̅gregare": 6170,
      "Damisi": 6171,
      "Hispanię": 6172,
      "Siluestri": 6173,
      "Siluerii": 6174,
      "bello": 6175,
      "ęterni": 6176,
      "iniusta": 6177,
      "inflatione": 6178,
      "quacūq": 6179,
      "quocūq": 6180,
      "limes": 6181,
      "iacobo": 6182,
      "prudenter": 6183,
      "prudent̅": 6184,
      "sufficiat": 6185,
      "dignos": 6186,
      "dilaceratis": 6187,
      "administratione": 6188,
      "apicem": 6189,
      "apicē": 6190,
      "apparuerint": 6191,
      "omagis": 6192,
      "extitit": 6193,
      "auaricię": 6194,
      "auxiliante": 6195,
      "sermones": 6196,
      "paruipendunt": 6197,
      "idonea": 6198,
      "sc̅ificat": 6199,
      "sc̅ificato": 6200,
      "mancipia": 6201,
      "istosquatuordies": 6202,
      "mogotiensi": 6203,
      "diuinitus": 6204,
      "remedio": 6205,
      "defuncto": 6206,
      "retineat": 6207,
      "uesꝑtinis": 6208,
      "fugiendum": 6209,
      "spiritali": 6210,
      "spiritales": 6211,
      "uacuū": 6212,
      "clęricos": 6213,
      "confiteatur": 6214,
      "satisfactione": 6215,
      "inuaserit": 6216,
      "difficilem": 6217,
      "Iudices": 6218,
      "gubernare": 6219,
      "nuncupatus": 6220,
      "imperialibus": 6221,
      "coniunxerit": 6222,
      "c̅sentientes": 6223,
      "predicationis": 6224,
      "matrimonio": 6225,
      "nouam": 6226,
      "Clementis": 6227,
      "Clem̅tis": 6228,
      "Doctores": 6229,
      "Om̅is": 6230,
      "Primates": 6231,
      "Remensi": 6232,
      "blandi": 6233,
      "blasphem": 6234,
      "gemin": 6235,
      "spernit": 6236,
      "xlii": 6237,
      "xliii": 6238,
      "introd": 6239,
      "introniz": 6240,
      "indiscrete": 6241,
      "inpedierit": 6242,
      "qualiscumque": 6243,
      "essio": 6244,
      "decidat": 6245,
      "ambig": 6246,
      "dirigendę": 6247,
      "adimpleatur": 6248,
      "abominant": 6249,
      "abominantur": 6250,
      "stipendi": 6251,
      "stipendia": 6252,
      "assidue": 6253,
      "roborata": 6254,
      "obsecrationibus": 6255,
      "obsecrationib": 6256,
      "obędire": 6257,
      "Quanto": 6258,
      "incrementum": 6259,
      "seruitutis": 6260,
      "edocti": 6261,
      "carduum": 6262,
      "carduū": 6263,
      "sceler": 6264,
      "interimerentur": 6265,
      "mortuus": 6266,
      "prebens": 6267,
      "abscondita": 6268,
      "septēbre": 6269,
      "captiuitatis": 6270,
      "simoniacam": 6271,
      "hęredit": 6272,
      "domestica": 6273,
      "poterit": 6274,
      "penitentia": 6275,
      "Concurrendum": 6276,
      "Concurrendū": 6277,
      "pastorali": 6278,
      "pacifice": 6279,
      "orientalib": 6280,
      "orientalibus": 6281,
      "Quęrendum": 6282,
      "Quęrendū": 6283,
      "ignorantia": 6284,
      "triduoq": 6285,
      "triduoque": 6286,
      "uillula": 6287,
      "uillulę": 6288,
      "paganos": 6289,
      "c̅fiteat": 6290,
      "declinare": 6291,
      "antiochia": 6292,
      "polluitur": 6293,
      "Sacerdotes": 6294,
      "Propter": 6295,
      "p᷒ea": 6296,
      "procur": 6297,
      "contumatiam": 6298,
      "iohannem": 6299,
      "augeri": 6300,
      "p̄bere": 6301,
      "praebere": 6302,
      "deterius": 6303,
      "senioris": 6304,
      "lucrari": 6305,
      "Decretalis": 6306,
      "Hilario": 6307,
      "Iusiur": 6308,
      "QUADRAGESIMA": 6309,
      "SVMMA": 6310,
      "Sicut": 6311,
      "calliditate": 6312,
      "eutichiani": 6313,
      "hesterno": 6314,
      "pessime": 6315,
      "sinistro": 6316,
      "uexet": 6317,
      "uilescat": 6318,
      "ęquus": 6319,
      "inuidia": 6320,
      "iniuria": 6321,
      "inconsulto": 6322,
      "quintaferia": 6323,
      "ancill": 6324,
      "orationibusque": 6325,
      "iudex": 6326,
      "suffrag": 6327,
      "conpensantur": 6328,
      "adiunxerimus": 6329,
      "stultic": 6330,
      "c̅string": 6331,
      "excessus": 6332,
      "trinitate": 6333,
      "audisti": 6334,
      "aureliano": 6335,
      "intellegere": 6336,
      "oblationes": 6337,
      "obsequio": 6338,
      "subditis": 6339,
      "subrogato": 6340,
      "resurrect": 6341,
      "biennium": 6342,
      "mortifer": 6343,
      "eccꝉast": 6344,
      "senectute": 6345,
      "circuitione": 6346,
      "transmigratus": 6347,
      "lętitiae": 6348,
      "hierosolimit": 6349,
      "heresi": 6350,
      "supplicatione": 6351,
      "uehem": 6352,
      "integerrime": 6353,
      "ignotis": 6354,
      "exorbitauerit": 6355,
      "denominati": 6356,
      "castellis": 6357,
      "significent": 6358,
      "nobilitatem": 6359,
      "retractari": 6360,
      "nesciente": 6361,
      "laborante": 6362,
      "arbitror": 6363,
      "uuamba": 6364,
      "inmundorum": 6365,
      "incorrigibiles": 6366,
      "corripiendus": 6367,
      "dęmones": 6368,
      "pentec": 6369,
      "prolatis": 6370,
      "aduitorio": 6371,
      "c̅tumatiā": 6372,
      "precipuis": 6373,
      "audacter": 6374,
      "gloriari": 6375,
      "19916": 6376,
      "Anicii": 6377,
      "Bischof": 6378,
      "Burchard": 6379,
      "Correctio": 6380,
      "Celest": 6381,
      "Dilect": 6382,
      "Gelasi": 6383,
      "Hoffmann": 6384,
      "Illi": 6385,
      "Italię": 6386,
      "Münch": 6387,
      "Ordin": 6388,
      "OBSERuatione": 6389,
      "Pokorn": 6390,
      "Rihuuin": 6391,
      "Reliqui": 6392,
      "Sugger": 6393,
      "Turonico": 6394,
      "Textstu": 6395,
      "Titulo": 6396,
      "TESTA": 6397,
      "Uniu": 6398,
      "Verbreitung": 6399,
      "Vorlag": 6400,
      "Worms": 6401,
      "aedific": 6402,
      "dissimul": 6403,
      "felice": 6404,
      "helinopoli": 6405,
      "hensio": 6406,
      "radice": 6407,
      "satagat": 6408,
      "solius": 6409,
      "uadatur": 6410,
      "uagantes": 6411,
      "isteret": 6412,
      "iniuri": 6413,
      "orthodox": 6414,
      "deuenerat": 6415,
      "reclinet": 6416,
      "emergentibus": 6417,
      "arausico": 6418,
      "consubstantialem": 6419,
      "antecess": 6420,
      "antexxx": 6421,
      "adrianop": 6422,
      "ecebras": 6423,
      "aperire": 6424,
      "c̅suetudinē": 6425,
      "assurgere": 6426,
      "exstiterit": 6427,
      "excutit": 6428,
      "truncationes": 6429,
      "obnoxius": 6430,
      "particeps": 6431,
      "neophitus": 6432,
      "corroserint": 6433,
      "bigami": 6434,
      "festinasse": 6435,
      "septuaginta": 6436,
      "nocturnis": 6437,
      "affrice": 6438,
      "tricennalis": 6439,
      "peiurauerit": 6440,
      "induosmetropolitanos": 6441,
      "dilapidauit": 6442,
      "199165": 6443,
      "Bischofs": 6444,
      "München": 6445,
      "Pokorny": 6446,
      "Textstufen": 6447,
      "Vorlagen": 6448,
      "TERCI": 6449,
      "Altheim": 6450,
      "VN": 6451,
      "Ap": 6452,
      "Idē": 6453,
      "Iesum": 6454,
      "Sc̅": 6455,
      "Secun": 6456,
      "cibus": 6457,
      "ciū": 6458,
      "corū": 6459,
      "ciā": 6460,
      "eˢ": 6461,
      "hui": 6462,
      "kꝉ": 6463,
      "km̅": 6464,
      "mę": 6465,
      "mente": 6466,
      "mensis": 6467,
      "mensem": 6468,
      "nere": 6469,
      "niant": 6470,
      "pꝉ": 6471,
      "pp̄": 6472,
      "qͧ": 6473,
      "qm̅": 6474,
      "sos": 6475,
      "tibus": 6476,
      "time": 6477,
      "tulisse": 6478,
      "uū": 6479,
      "uant": 6480,
      "verit": 6481,
      "ęsum": 6482,
      "ƀr": 6483,
      "̅m": 6484,
      "ꝑcus": 6485,
      "ꝑcipiat": 6486,
      "ꝑsist": 6487,
      "ꝑmittat": 6488,
      "ꝑueniri": 6489,
      "ꝑtineant": 6490,
      "ꝑcutitis": 6491,
      "ꝑendie": 6492,
      "ꝓximo": 6493,
      "ꝓmot": 6494,
      "ꝓperat": 6495,
      "ꝓuintia": 6496,
      "ꝓuocant": 6497,
      "ꝓuinciis": 6498,
      "israh": 6499,
      "inic": 6500,
      "inqui": 6501,
      "insol": 6502,
      "inueni": 6503,
      "insuper": 6504,
      "insuꝑ": 6505,
      "inrep̄hens": 6506,
      "inuisibiliū": 6507,
      "atib": 6508,
      "aten᷒": 6509,
      "item": 6510,
      "quer": 6511,
      "quor": 6512,
      "on̅": 6513,
      "ense": 6514,
      "eth": 6515,
      "anensi": 6516,
      "anato": 6517,
      "iculo": 6518,
      "depraec": 6519,
      "reprob": 6520,
      "reꝓb": 6521,
      "reform": 6522,
      "utebat": 6523,
      "epꝉ": 6524,
      "coꝝ": 6525,
      "amentiam": 6526,
      "amorem": 6527,
      "secū": 6528,
      "seumpserit": 6529,
      "ulorū": 6530,
      "confer": 6531,
      "consent": 6532,
      "conson": 6533,
      "consequ": 6534,
      "conuinci": 6535,
      "constant": 6536,
      "conpellantur": 6537,
      "controuers": 6538,
      "admitt": 6539,
      "uerū": 6540,
      "uerter": 6541,
      "uertere": 6542,
      "abunt": 6543,
      "abuntur": 6544,
      "siquidem": 6545,
      "quiis": 6546,
      "episcopium": 6547,
      "aliarum": 6548,
      "dicitur": 6549,
      "erea": 6550,
      "c̅fer": 6551,
      "c̅tē": 6552,
      "c̅firm": 6553,
      "c̅temp": 6554,
      "c̅cess": 6555,
      "c̅sist": 6556,
      "c̅stant": 6557,
      "c̅pens": 6558,
      "c̅spectu": 6559,
      "c̅fund": 6560,
      "assensum": 6561,
      "iustā": 6562,
      "perib": 6563,
      "percipiat": 6564,
      "permittat": 6565,
      "perueniri": 6566,
      "perdat": 6567,
      "pertineant": 6568,
      "pertitus": 6569,
      "perendie": 6570,
      "peruadatur": 6571,
      "terrā": 6572,
      "tertia": 6573,
      "prouinciis": 6574,
      "Capit̅": 6575,
      "ebantur": 6576,
      "ctum": 6577,
      "debem᷒": 6578,
      "agunt": 6579,
      "issum": 6580,
      "ordinib": 6581,
      "ordinibus": 6582,
      "andā": 6583,
      "Qualem": 6584,
      "ensa": 6585,
      "iudicum": 6586,
      "iudicē": 6587,
      "p̄dia": 6588,
      "p̄ferant": 6589,
      "p̄sente": 6590,
      "p̄sul": 6591,
      "riis": 6592,
      "duorum": 6593,
      "dominicam": 6594,
      "illorū": 6595,
      "orūq": 6596,
      "Siquidem": 6597,
      "praesso": 6598,
      "praseumpserit": 6599,
      "conciliū": 6600,
      "commod": 6601,
      "compulsus": 6602,
      "commissam": 6603,
      "commissum": 6604,
      "compellat": 6605,
      "competenti": 6606,
      "discrimen": 6607,
      "subt̅": 6608,
      "udendum": 6609,
      "udendū": 6610,
      "uisum": 6611,
      "uisū": 6612,
      "quāquā": 6613,
      "opoli": 6614,
      "synodalē": 6615,
      "sanctam": 6616,
      "uinculum": 6617,
      "idus": 6618,
      "patiunt": 6619,
      "sc̅is": 6620,
      "sc̅am": 6621,
      "toler": 6622,
      "quoduuldeo": 6623,
      "decimus": 6624,
      "om̅im": 6625,
      "Etiam": 6626,
      "quousque": 6627,
      "quousq": 6628,
      "cōꝓuincia": 6629,
      "cōꝓb": 6630,
      "cōmissā": 6631,
      "cōmissos": 6632,
      "summittere": 6633,
      "uocab": 6634,
      "uocat᷒": 6635,
      "maius": 6636,
      "atore": 6637,
      "atorem": 6638,
      "primitus": 6639,
      "primatu": 6640,
      "bipertitus": 6641,
      "mouent": 6642,
      "mouere": 6643,
      "metropolitanum": 6644,
      "metropolitanū": 6645,
      "eiq": 6646,
      "eique": 6647,
      "frater": 6648,
      "fratre": 6649,
      "decretū": 6650,
      "obseruentur": 6651,
      "communionis": 6652,
      "communionē": 6653,
      "uicem": 6654,
      "uicē": 6655,
      "uicariū": 6656,
      "reditus": 6657,
      "formet": 6658,
      "eisdem": 6659,
      "docto": 6660,
      "genitū": 6661,
      "auctoritatem": 6662,
      "auctoritatē": 6663,
      "ciborū": 6664,
      "ciboꝝ": 6665,
      "celebrant": 6666,
      "statum": 6667,
      "statutum": 6668,
      "statutū": 6669,
      "postmodum": 6670,
      "fideliū": 6671,
      "morat": 6672,
      "moratur": 6673,
      "ipsam": 6674,
      "act̅": 6675,
      "nr̅ę": 6676,
      "testib": 6677,
      "saltē": 6678,
      "pellatur": 6679,
      "uestris": 6680,
      "uestram": 6681,
      "prouinciarum": 6682,
      "rogandū": 6683,
      "magnam": 6684,
      "plebium": 6685,
      "nostrę": 6686,
      "quadragesime": 6687,
      "animum": 6688,
      "animam": 6689,
      "tatem": 6690,
      "tatē": 6691,
      "Quidam": 6692,
      "cedant": 6693,
      "cedentibus": 6694,
      "fecimus": 6695,
      "timeant": 6696,
      "quosdam": 6697,
      "quosdā": 6698,
      "tuor": 6699,
      "teneret": 6700,
      "tenebant": 6701,
      "tenebantur": 6702,
      "quibuscumque": 6703,
      "audact̅": 6704,
      "cui᷒": 6705,
      "cuiquam": 6706,
      "suꝑbię": 6707,
      "ꝓprium": 6708,
      "ꝓpriet": 6709,
      "infirmitatem": 6710,
      "infirmitatē": 6711,
      "dānat": 6712,
      "praesul": 6713,
      "romam": 6714,
      "romā": 6715,
      "maioribus": 6716,
      "praeest": 6717,
      "praehens": 6718,
      "alienam": 6719,
      "alienā": 6720,
      "scienter": 6721,
      "uiuendū": 6722,
      "uiuentibus": 6723,
      "uiuentib": 6724,
      "priuent": 6725,
      "priuentur": 6726,
      "diligamus": 6727,
      "aduers": 6728,
      "decimā": 6729,
      "credatur": 6730,
      "accusatorib": 6731,
      "c̅cilii": 6732,
      "cuiusdā": 6733,
      "fr̅e": 6734,
      "pontificū": 6735,
      "pontificibus": 6736,
      "tanquam": 6737,
      "tanquā": 6738,
      "ur̅o": 6739,
      "ur̅is": 6740,
      "ur̅am": 6741,
      "abilit̅": 6742,
      "filium": 6743,
      "filiū": 6744,
      "principe": 6745,
      "sūpt": 6746,
      "uident": 6747,
      "uidentur": 6748,
      "coniugib": 6749,
      "coniugem": 6750,
      "nouimus": 6751,
      "eligendum": 6752,
      "electionem": 6753,
      "probentur": 6754,
      "spiritum": 6755,
      "laicum": 6756,
      "laicū": 6757,
      "laicā": 6758,
      "nicā": 6759,
      "p̄sumpt": 6760,
      "scđa": 6761,
      "pͥus": 6762,
      "pͥmat": 6763,
      "pͥoris": 6764,
      "pestē": 6765,
      "qᷓm": 6766,
      "qᷓt": 6767,
      "qᷓtuor": 6768,
      "ꝓbet": 6769,
      "ꝓbant": 6770,
      "suspendatur": 6771,
      "quicumque": 6772,
      "quicūq": 6773,
      "consecretur": 6774,
      "consecrarunt": 6775,
      "sabbatoꝝ": 6776,
      "ceterorū": 6777,
      "ceteroꝝ": 6778,
      "tradunt": 6779,
      "liberentur": 6780,
      "c̅stitutionē": 6781,
      "uideam": 6782,
      "damnatis": 6783,
      "infamatur": 6784,
      "tēptam̅": 6785,
      "recipiet": 6786,
      "recipiatur": 6787,
      "dubium": 6788,
      "dubiū": 6789,
      "negoti": 6790,
      "negotio": 6791,
      "negotium": 6792,
      "negotiū": 6793,
      "cessoris": 6794,
      "sequant": 6795,
      "sequeret": 6796,
      "confund": 6797,
      "antiquorum": 6798,
      "Epꝉa": 6799,
      "bannū": 6800,
      "pastoribus": 6801,
      "ambitionem": 6802,
      "acceptā": 6803,
      "successorib": 6804,
      "furatus": 6805,
      "malum": 6806,
      "malū": 6807,
      "sensū": 6808,
      "totāq": 6809,
      "mensibus": 6810,
      "ducunt": 6811,
      "legitimus": 6812,
      "xp̅iana": 6813,
      "christiana": 6814,
      "p̄cipimus": 6815,
      "catholicam": 6816,
      "unusquisque": 6817,
      "usurp": 6818,
      "excusationem": 6819,
      "excusationē": 6820,
      "p̄dicatione": 6821,
      "p̄dicationē": 6822,
      "rexerunt": 6823,
      "donis": 6824,
      "donat": 6825,
      "donatur": 6826,
      "praesumptione": 6827,
      "regimen": 6828,
      "Epistol": 6829,
      "legitimam": 6830,
      "innocentia": 6831,
      "congregata": 6832,
      "personam": 6833,
      "personas": 6834,
      "xlmam": 6835,
      "praedicatione": 6836,
      "misericordit̅": 6837,
      "Cumque": 6838,
      "ulterius": 6839,
      "c̅tinentię": 6840,
      "uiduam": 6841,
      "uiduā": 6842,
      "uiduarum": 6843,
      "tēporib": 6844,
      "sollempn": 6845,
      "subscripserunt": 6846,
      "Episcopi": 6847,
      "Perquirendum": 6848,
      "sp̅m": 6849,
      "c̅ꝓuincialib": 6850,
      "exorc": 6851,
      "exigentib": 6852,
      "fraternitatis": 6853,
      "fraternitatem": 6854,
      "examinetur": 6855,
      "Simplicii": 6856,
      "ꝑsonas": 6857,
      "ꝑsonā": 6858,
      "c̅iugali": 6859,
      "arborem": 6860,
      "custodiam": 6861,
      "reseruauit": 6862,
      "Ep̅i": 6863,
      "excommunicare": 6864,
      "excommunicatus": 6865,
      "excommunicandi": 6866,
      "fastigium": 6867,
      "qͦq": 6868,
      "iubentib": 6869,
      "signū": 6870,
      "terminentur": 6871,
      "manifestum": 6872,
      "manifestū": 6873,
      "dampna": 6874,
      "dampnet": 6875,
      "dampnationis": 6876,
      "uesperā": 6877,
      "futurū": 6878,
      "custodiant": 6879,
      "dragesima": 6880,
      "mulgata": 6881,
      "reconciliatis": 6882,
      "reconciliauit": 6883,
      "diiudicent": 6884,
      "diiudicetur": 6885,
      "emendationē": 6886,
      "summus": 6887,
      "priuilegiū": 6888,
      "pauperib": 6889,
      "finiat": 6890,
      "multorum": 6891,
      "iurauerunt": 6892,
      "conuersionem": 6893,
      "conuersationem": 6894,
      "egritudinem": 6895,
      "egritudinē": 6896,
      "fornicat᷒": 6897,
      "restituantur": 6898,
      "possessionibus": 6899,
      "possessionib": 6900,
      "transigant": 6901,
      "mercedem": 6902,
      "cęlebrent": 6903,
      "cęlebrentur": 6904,
      "frequent̅": 6905,
      "basilicam": 6906,
      "basilicā": 6907,
      "Aliter": 6908,
      "prauorū": 6909,
      "c̅stituere": 6910,
      "c̅stituer̅": 6911,
      "c̅secret": 6912,
      "prohibetur": 6913,
      "ꝓpͥū": 6914,
      "eronimus": 6915,
      "propheta": 6916,
      "qᷓdraginta": 6917,
      "suspectū": 6918,
      "cognoscit": 6919,
      "consulere": 6920,
      "benedictionem": 6921,
      "caueat": 6922,
      "ꝓhibemus": 6923,
      "entissimus": 6924,
      "concordare": 6925,
      "concorditer": 6926,
      "perpetrare": 6927,
      "p̄sso": 6928,
      "cognouimus": 6929,
      "gratiarum": 6930,
      "Omnes": 6931,
      "Omnibus": 6932,
      "ꝓpheta": 6933,
      "inuentum": 6934,
      "inuentū": 6935,
      "consiliis": 6936,
      "c̅uersationē": 6937,
      "exequiis": 6938,
      "p̄ceptis": 6939,
      "dissidentibus": 6940,
      "respectum": 6941,
      "praeceptis": 6942,
      "supplementū": 6943,
      "dimitt": 6944,
      "dimittit": 6945,
      "requiratur": 6946,
      "conscientia": 6947,
      "concessū": 6948,
      "c̅gregata": 6949,
      "perpetra": 6950,
      "defendit": 6951,
      "ęcclesiasticos": 6952,
      "ęcclesiasticas": 6953,
      "ęcclesiasticarum": 6954,
      "ęccꝉasticos": 6955,
      "ęccꝉasticas": 6956,
      "supᷓdictis": 6957,
      "naturam": 6958,
      "pedib": 6959,
      "ꝓfiteor": 6960,
      "ꝓfessionis": 6961,
      "iacobus": 6962,
      "secularia": 6963,
      "dilectissimus": 6964,
      "dilacerat": 6965,
      "armant": 6966,
      "armantur": 6967,
      "profiteor": 6968,
      "professionis": 6969,
      "irritam": 6970,
      "uesꝑtina": 6971,
      "uesꝑtinū": 6972,
      "austerā": 6973,
      "clęricum": 6974,
      "christus": 6975,
      "condempn": 6976,
      "om̄ib": 6977,
      "c̅sentiente": 6978,
      "excōmunicare": 6979,
      "excōmunicatus": 6980,
      "persecutus": 6981,
      "computetur": 6982,
      "sacram̅tū": 6983,
      "predicationem": 6984,
      "rep̄hendere": 6985,
      "reprehendere": 6986,
      "Om̅s": 6987,
      "eandē": 6988,
      "nusquam": 6989,
      "nusquā": 6990,
      "inopolitan": 6991,
      "requisitus": 6992,
      "coquunt": 6993,
      "emissum": 6994,
      "emissū": 6995,
      "arduā": 6996,
      "congru": 6997,
      "congruo": 6998,
      "unigenitum": 6999,
      "quietem": 7000,
      "quietē": 7001,
      "c̅seruetur": 7002,
      "c̅seruatione": 7003,
      "frugū": 7004,
      "subnotat": 7005,
      "cōmessationes": 7006,
      "curatosq": 7007,
      "curatosque": 7008,
      "similem": 7009,
      "natiuitatē": 7010,
      "definitionem": 7011,
      "magistrorum": 7012,
      "Nequaquā": 7013,
      "ceterorumque": 7014,
      "moderataq": 7015,
      "moderataque": 7016,
      "t̅minos": 7017,
      "triduanū": 7018,
      "glorificandum": 7019,
      "glorificandū": 7020,
      "c̅fitendo": 7021,
      "Abstinendū": 7022,
      "Int̅rogandū": 7023,
      "frat̅nitatis": 7024,
      "querelā": 7025,
      "Scđ": 7026,
      "iħm": 7027,
      "iħu": 7028,
      "karissimi": 7029,
      "ꝑsecutus": 7030,
      "ꝑsecutionē": 7031,
      "inlecebras": 7032,
      "contēpserit": 7033,
      "contēpserint": 7034,
      "contumatia": 7035,
      "interrogationes": 7036,
      "sūmopere": 7037,
      "praesumptionis": 7038,
      "adiutor": 7039,
      "Eiusdem": 7040,
      "Eiusdē": 7041,
      "Iuramentum": 7042,
      "gall": 7043,
      "hebitudinem": 7044,
      "hebitudinē": 7045,
      "liminibus": 7046,
      "recipiuntur": 7047,
      "coerceat": 7048,
      "coerceatur": 7049,
      "conuictus": 7050,
      "consider": 7051,
      "consideratis": 7052,
      "conuellere": 7053,
      "abutitur": 7054,
      "c̅gruo": 7055,
      "c̅siliis": 7056,
      "iusticiam": 7057,
      "iusticiā": 7058,
      "obiciuntur": 7059,
      "sacietatem": 7060,
      "sacietatē": 7061,
      "diuidatur": 7062,
      "discernit": 7063,
      "Concilium": 7064,
      "Conciliū": 7065,
      "martyrum": 7066,
      "martyrū": 7067,
      "congregandarum": 7068,
      "funguntur": 7069,
      "gentilium": 7070,
      "gentiliū": 7071,
      "condemnari": 7072,
      "egyptum": 7073,
      "egyptū": 7074,
      "exēplo": 7075,
      "fri̅s": 7076,
      "ꝑfectū": 7077,
      "inrepraehens": 7078,
      "concupisc": 7079,
      "consistat": 7080,
      "perfectum": 7081,
      "praedia": 7082,
      "proprietatem": 7083,
      "propinquorum": 7084,
      "pͥuileg": 7085,
      "contemnant": 7086,
      "promotionem": 7087,
      "nudatus": 7088,
      "nascatur": 7089,
      "tecum": 7090,
      "anullatum": 7091,
      "dep̄cetur": 7092,
      "dedignantibus": 7093,
      "acquisi": 7094,
      "conculcet": 7095,
      "c̅uictus": 7096,
      "decēbre": 7097,
      "formulam": 7098,
      "culpabilem": 7099,
      "declaratur": 7100,
      "Iusiurandum": 7101,
      "ancillam": 7102,
      "eˢˢ": 7103,
      "km̅i": 7104,
      "qͧdragesima": 7105,
      "ꝑsistendū": 7106,
      "israhel": 7107,
      "quorun": 7108,
      "depraecetur": 7109,
      "tēptam̅ta": 7110,
      "EI": 7111,
      "IO": 7112,
      "IEI": 7113,
      "LIBRI": 7114,
      "VNIO": 7115,
      "IEIVNIO": 7116,
      "xxxvi": 7117,
      "MI": 7118,
      "PRI": 7119,
      "hein": 7120,
      "uonrado": 7121,
      "AU": 7122,
      "Ac": 7123,
      "As": 7124,
      "Aut": 7125,
      "Ant": 7126,
      "Auti": 7127,
      "Amodo": 7128,
      "Agat": 7129,
      "Apud": 7130,
      "Alio": 7131,
      "Br": 7132,
      "Ber": 7133,
      "Beat": 7134,
      "Cuius": 7135,
      "Cast": 7136,
      "Cabil": 7137,
      "Cūq": 7138,
      "Cunct": 7139,
      "Cuar": 7140,
      "Cyr": 7141,
      "Crim": 7142,
      "Cuonrad": 7143,
      "Canon": 7144,
      "Di": 7145,
      "Dis": 7146,
      "Den": 7147,
      "Dic": 7148,
      "Dol": 7149,
      "Dub": 7150,
      "Deter": 7151,
      "Deleg": 7152,
      "Dioc": 7153,
      "Dosi": 7154,
      "ET": 7155,
      "Ea": 7156,
      "Eb": 7157,
      "Eut": 7158,
      "Eos": 7159,
      "Enim": 7160,
      "Fam": 7161,
      "Fab": 7162,
      "Fili": 7163,
      "Felix": 7164,
      "Ga": 7165,
      "Gen": 7166,
      "Gre": 7167,
      "Gest": 7168,
      "Gang": 7169,
      "Hon": 7170,
      "Hum": 7171,
      "Huius": 7172,
      "Heri": 7173,
      "Hinim": 7174,
      "Ir": 7175,
      "Iam": 7176,
      "Ign": 7177,
      "Isid": 7178,
      "Istud": 7179,
      "Kar": 7180,
      "Kal": 7181,
      "Liber": 7182,
      "Mo": 7183,
      "Mis": 7184,
      "Men": 7185,
      "Mem": 7186,
      "Mag": 7187,
      "Miss": 7188,
      "Munus": 7189,
      "Mont": 7190,
      "MUS": 7191,
      "Minus": 7192,
      "NO": 7193,
      "No": 7194,
      "Nic": 7195,
      "Nol": 7196,
      "Not": 7197,
      "Ob": 7198,
      "Oper": 7199,
      "Ori": 7200,
      "Opt": 7201,
      "Orm": 7202,
      "Oues": 7203,
      "OTESTA": 7204,
      "PR": 7205,
      "Pa": 7206,
      "Pet": 7207,
      "Por": 7208,
      "Par": 7209,
      "Pal": 7210,
      "Pot": 7211,
      "Pau": 7212,
      "Past": 7213,
      "Peri": 7214,
      "Pret": 7215,
      "Ponti": 7216,
      "Penit": 7217,
      "Precep": 7218,
      "Prius": 7219,
      "Peregr": 7220,
      "POTESTA": 7221,
      "QV": 7222,
      "Quer": 7223,
      "Ru": 7224,
      "Res": 7225,
      "Rum": 7226,
      "Rim": 7227,
      "Rel": 7228,
      "Rog": 7229,
      "Reuer": 7230,
      "SU": 7231,
      "Sen": 7232,
      "Sco": 7233,
      "Sem": 7234,
      "Suis": 7235,
      "Stra": 7236,
      "Seru": 7237,
      "Sustin": 7238,
      "Scrips": 7239,
      "TO": 7240,
      "TV": 7241,
      "Tu": 7242,
      "Tum": 7243,
      "Tem": 7244,
      "Tant": 7245,
      "Treuer": 7246,
      "Talia": 7247,
      "Tunc": 7248,
      "Tales": 7249,
      "Terr": 7250,
      "The": 7251,
      "Teuseb": 7252,
      "Uen": 7253,
      "Ual": 7254,
      "Uid": 7255,
      "Utin": 7256,
      "Ubi": 7257,
      "Uni": 7258,
      "Unus": 7259,
      "VO": 7260,
      "Vn": 7261,
      "Vos": 7262,
      "Voc": 7263,
      "Vod": 7264,
      "Vne": 7265,
      "Vbi": 7266,
      "Verbi": 7267,
      "Viuit": 7268,
      "Ybas": 7269,
      "Zep": 7270,
      "ax": 7271,
      "aet": 7272,
      "aar": 7273,
      "auer": 7274,
      "aquis": 7275,
      "aunt": 7276,
      "avi": 7277,
      "auig": 7278,
      "auerunt": 7279,
      "asilio": 7280,
      "aias": 7281,
      "africę": 7282,
      "aiebat": 7283,
      "bes": 7284,
      "biu": 7285,
      "bū": 7286,
      "bur": 7287,
      "buer": 7288,
      "br̅": 7289,
      "bra": 7290,
      "beret": 7291,
      "bub": 7292,
      "boli": 7293,
      "buisse": 7294,
      "buere": 7295,
      "bdomad": 7296,
      "bendę": 7297,
      "basilio": 7298,
      "cent": 7299,
      "cos": 7300,
      "cam": 7301,
      "cec": 7302,
      "cepis": 7303,
      "cali": 7304,
      "ciam": 7305,
      "cles": 7306,
      "cens": 7307,
      "catus": 7308,
      "cing": 7309,
      "cionis": 7310,
      "ccid": 7311,
      "cxxx": 7312,
      "ceru": 7313,
      "cisc": 7314,
      "cessi": 7315,
      "cxxii": 7316,
      "dur": 7317,
      "dun": 7318,
      "dend": 7319,
      "datus": 7320,
      "datione": 7321,
      "dine": 7322,
      "dimus": 7323,
      "deret": 7324,
      "datum": 7325,
      "datū": 7326,
      "dentibus": 7327,
      "dito": 7328,
      "densis": 7329,
      "dori": 7330,
      "daret": 7331,
      "domni": 7332,
      "diunxer": 7333,
      "diber": 7334,
      "diudicandi": 7335,
      "ez": 7336,
      "econ": 7337,
      "edic": 7338,
      "euenire": 7339,
      "eulo": 7340,
      "effer": 7341,
      "euenit": 7342,
      "earet": 7343,
      "edicta": 7344,
      "euocatus": 7345,
      "euocari": 7346,
      "eudo": 7347,
      "euocare": 7348,
      "euocati": 7349,
      "eficos": 7350,
      "fe": 7351,
      "fo": 7352,
      "fis": 7353,
      "fat": 7354,
      "fon": 7355,
      "far": 7356,
      "foc": 7357,
      "faut": 7358,
      "fot": 7359,
      "fine": 7360,
      "fed": 7361,
      "fing": 7362,
      "fell": 7363,
      "fla": 7364,
      "frig": 7365,
      "fou": 7366,
      "fiteor": 7367,
      "font": 7368,
      "fuissent": 7369,
      "fuisset": 7370,
      "fęn": 7371,
      "fregerit": 7372,
      "faunt": 7373,
      "ges": 7374,
      "gre": 7375,
      "gant": 7376,
      "gab": 7377,
      "gau": 7378,
      "gord": 7379,
      "gnis": 7380,
      "gine": 7381,
      "geri": 7382,
      "geant": 7383,
      "gili": 7384,
      "gla": 7385,
      "gini": 7386,
      "gaud": 7387,
      "gaudi": 7388,
      "gmat": 7389,
      "gredi": 7390,
      "grex": 7391,
      "geli": 7392,
      "guat": 7393,
      "gesserit": 7394,
      "ht": 7395,
      "hu": 7396,
      "hy": 7397,
      "hes": 7398,
      "ham": 7399,
      "hec": 7400,
      "hal": 7401,
      "heri": 7402,
      "huiu": 7403,
      "hodi": 7404,
      "hesum": 7405,
      "hesfurt": 7406,
      "hiani": 7407,
      "hard": 7408,
      "idu": 7409,
      "ientia": 7410,
      "igr": 7411,
      "iati": 7412,
      "ientes": 7413,
      "ientis": 7414,
      "ifacii": 7415,
      "ierosoli": 7416,
      "iecerit": 7417,
      "igenius": 7418,
      "ju": 7419,
      "kir": 7420,
      "lx": 7421,
      "len": 7422,
      "lum": 7423,
      "lan": 7424,
      "luer": 7425,
      "lap": 7426,
      "liter": 7427,
      "led": 7428,
      "leo": 7429,
      "lator": 7430,
      "llac": 7431,
      "luc": 7432,
      "luere": 7433,
      "leris": 7434,
      "llis": 7435,
      "lxi": 7436,
      "lani": 7437,
      "lapid": 7438,
      "latoris": 7439,
      "ldus": 7440,
      "mn": 7441,
      "ms": 7442,
      "m᷒": 7443,
      "ment": 7444,
      "mim": 7445,
      "mere": 7446,
      "mas": 7447,
      "mio": 7448,
      "mari": 7449,
      "messe": 7450,
      "med": 7451,
      "mata": 7452,
      "mior": 7453,
      "mech": 7454,
      "mei": 7455,
      "mitis": 7456,
      "manda": 7457,
      "mate": 7458,
      "muntur": 7459,
      "mendis": 7460,
      "maria": 7461,
      "mopere": 7462,
      "malicia": 7463,
      "matiz": 7464,
      "menta": 7465,
      "mentem": 7466,
      "medit": 7467,
      "messis": 7468,
      "ner": 7469,
      "net": 7470,
      "nar": 7471,
      "nest": 7472,
      "nali": 7473,
      "nil": 7474,
      "nod": 7475,
      "neat": 7476,
      "nens": 7477,
      "natus": 7478,
      "nitas": 7479,
      "nell": 7480,
      "nodo": 7481,
      "neret": 7482,
      "nici": 7483,
      "nug": 7484,
      "nico": 7485,
      "noris": 7486,
      "nesc": 7487,
      "nopere": 7488,
      "nifest": 7489,
      "nescit": 7490,
      "nora": 7491,
      "odic": 7492,
      "oui": 7493,
      "pᷓ": 7494,
      "pis": 7495,
      "pse": 7496,
      "pad": 7497,
      "pec": 7498,
      "pii": 7499,
      "pel": 7500,
      "pitat": 7501,
      "pio": 7502,
      "punt": 7503,
      "piam": 7504,
      "peius": 7505,
      "piā": 7506,
      "politan": 7507,
      "pred": 7508,
      "panda": 7509,
      "pici": 7510,
      "pationis": 7511,
      "phę": 7512,
      "pup": 7513,
      "pign": 7514,
      "puell": 7515,
      "pescere": 7516,
      "puni": 7517,
      "peperit": 7518,
      "pegip": 7519,
      "picere": 7520,
      "qnitas": 7521,
      "rt": 7522,
      "ron": 7523,
      "run": 7524,
      "ras": 7525,
      "rerit": 7526,
      "riam": 7527,
      "ritate": 7528,
      "rari": 7529,
      "rita": 7530,
      "ring": 7531,
      "rarum": 7532,
      "rentur": 7533,
      "renda": 7534,
      "rano": 7535,
      "rensis": 7536,
      "rendus": 7537,
      "roni": 7538,
      "renn": 7539,
      "rias": 7540,
      "renit": 7541,
      "rori": 7542,
      "riarch": 7543,
      "ralibus": 7544,
      "rpanda": 7545,
      "sepis": 7546,
      "sas": 7547,
      "sot": 7548,
      "sentia": 7549,
      "spet": 7550,
      "sati": 7551,
      "sime": 7552,
      "siones": 7553,
      "sensis": 7554,
      "sinu": 7555,
      "sisse": 7556,
      "scol": 7557,
      "sof": 7558,
      "sfurt": 7559,
      "sionibus": 7560,
      "t̄": 7561,
      "tet": 7562,
      "til": 7563,
      "tation": 7564,
      "torum": 7565,
      "tuit": 7566,
      "torū": 7567,
      "tatis": 7568,
      "tente": 7569,
      "tito": 7570,
      "tiliter": 7571,
      "tudinem": 7572,
      "tarent": 7573,
      "thr": 7574,
      "talē": 7575,
      "tarius": 7576,
      "tard": 7577,
      "uh": 7578,
      "uci": 7579,
      "udu": 7580,
      "ucl": 7581,
      "uing": 7582,
      "uitatis": 7583,
      "uore": 7584,
      "uendū": 7585,
      "uendis": 7586,
      "uana": 7587,
      "uitates": 7588,
      "uebat": 7589,
      "uecti": 7590,
      "uuar": 7591,
      "uendant": 7592,
      "uanus": 7593,
      "uadere": 7594,
      "uendat": 7595,
      "uanę": 7596,
      "udel": 7597,
      "uangeli": 7598,
      "va": 7599,
      "via": 7600,
      "vom": 7601,
      "vel": 7602,
      "vio": 7603,
      "vie": 7604,
      "vita": 7605,
      "vnde": 7606,
      "veni": 7607,
      "xe": 7608,
      "xę": 7609,
      "xat": 7610,
      "xon": 7611,
      "xum": 7612,
      "xū": 7613,
      "xio": 7614,
      "ximus": 7615,
      "xtione": 7616,
      "xistus": 7617,
      "yses": 7618,
      "ygini": 7619,
      "zanda": 7620,
      "zeli": 7621,
      "zabat": 7622,
      "zanz": 7623,
      "zbur": 7624,
      "ęr": 7625,
      "ęre": 7626,
      "ęque": 7627,
      "ęt̅": 7628,
      "ęqualitas": 7629,
      "ęstim": 7630,
      "ęqᷓlitas": 7631,
      "ętudinem": 7632,
      "̄fecerit": 7633,
      "̄MA": 7634,
      "̄hensio": 7635,
      "̅si": 7636,
      "ꝑag": 7637,
      "ꝑcep": 7638,
      "ꝑiur": 7639,
      "ꝑmissa": 7640,
      "ꝑtract": 7641,
      "ꝑscripta": 7642,
      "ꝑsec": 7643,
      "ꝑseuer": 7644,
      "ꝑsuadebat": 7645,
      "ꝑlecta": 7646,
      "ꝑuerse": 7647,
      "ꝑnitios": 7648,
      "ꝑegritudinē": 7649,
      "Ꝓhib": 7650,
      "Ꝓinde": 7651,
      "ꝓfic": 7652,
      "ꝓfer": 7653,
      "ꝓcur": 7654,
      "ꝓsp": 7655,
      "ꝓcul": 7656,
      "ꝓsequ": 7657,
      "ꝓcuret": 7658,
      "ꝓsecut": 7659,
      "ꝓnunt": 7660,
      "ꝓlatis": 7661,
      "ꝓuehi": 7662,
      "": 7663,
      "": 7664,
      "": 7665,
      "iso": 7666,
      "isde": 7667,
      "isię": 7668,
      "istratus": 7669,
      "ismate": 7670,
      "ero": 7671,
      "erep": 7672,
      "ersi": 7673,
      "erio": 7674,
      "eruerit": 7675,
      "erium": 7676,
      "erud": 7677,
      "erimus": 7678,
      "erop": 7679,
      "erub": 7680,
      "erserit": 7681,
      "ertitus": 7682,
      "eremur": 7683,
      "eruite": 7684,
      "erphę": 7685,
      "inst": 7686,
      "inii": 7687,
      "iniun": 7688,
      "indeb": 7689,
      "inium": 7690,
      "inmin": 7691,
      "instit": 7692,
      "inuis": 7693,
      "indign": 7694,
      "instat": 7695,
      "infide": 7696,
      "inenus": 7697,
      "inpell": 7698,
      "inuin": 7699,
      "inationes": 7700,
      "inieiunio": 7701,
      "insili": 7702,
      "inale": 7703,
      "intrans": 7704,
      "inuid": 7705,
      "inspir": 7706,
      "indictis": 7707,
      "incogn": 7708,
      "inplic": 7709,
      "incipiat": 7710,
      "inpen": 7711,
      "ineris": 7712,
      "inensis": 7713,
      "inaria": 7714,
      "inpulsus": 7715,
      "insequ": 7716,
      "incol": 7717,
      "indiffer": 7718,
      "inferant": 7719,
      "innot": 7720,
      "instant": 7721,
      "inpuls": 7722,
      "inhuman": 7723,
      "inpens": 7724,
      "inpu": 7725,
      "inuiol": 7726,
      "insequi": 7727,
      "indistricta": 7728,
      "inferi": 7729,
      "indigna": 7730,
      "inania": 7731,
      "inuerecun": 7732,
      "inquiet": 7733,
      "inmorari": 7734,
      "iniung": 7735,
      "inuocare": 7736,
      "ingrauari": 7737,
      "inpossibil": 7738,
      "inputatur": 7739,
      "ingress": 7740,
      "inpulsum": 7741,
      "indignos": 7742,
      "informet": 7743,
      "indocto": 7744,
      "inmitis": 7745,
      "atiu": 7746,
      "atia": 7747,
      "atas": 7748,
      "atensi": 7749,
      "attend": 7750,
      "attendere": 7751,
      "itet": 7752,
      "itos": 7753,
      "ital": 7754,
      "itiam": 7755,
      "itiā": 7756,
      "itano": 7757,
      "itantes": 7758,
      "itioni": 7759,
      "itudine": 7760,
      "itandis": 7761,
      "itariis": 7762,
      "itanę": 7763,
      "itineris": 7764,
      "use": 7765,
      "usum": 7766,
      "usta": 7767,
      "usHoffmann": 7768,
      "quan": 7769,
      "quom": 7770,
      "quore": 7771,
      "quitus": 7772,
      "quentis": 7773,
      "quale": 7774,
      "quendā": 7775,
      "onem": 7776,
      "onē": 7777,
      "oniā": 7778,
      "onei": 7779,
      "onstr": 7780,
      "ontio": 7781,
      "oneros": 7782,
      "ontia": 7783,
      "oniensis": 7784,
      "ende": 7785,
      "enar": 7786,
      "endic": 7787,
      "ennat": 7788,
      "enissimus": 7789,
      "enfis": 7790,
      "enhard": 7791,
      "enucl": 7792,
      "enatas": 7793,
      "eti": 7794,
      "et̅": 7795,
      "etan": 7796,
      "etius": 7797,
      "etatis": 7798,
      "etvii": 7799,
      "etviii": 7800,
      "etania": 7801,
      "etrabil": 7802,
      "etseptemdies": 7803,
      "etquintaferia": 7804,
      "etvia": 7805,
      "esis": 7806,
      "esaias": 7807,
      "umq": 7808,
      "umquam": 7809,
      "umquā": 7810,
      "umptione": 7811,
      "uminabit": 7812,
      "ane": 7813,
      "anu": 7814,
      "anei": 7815,
      "ancir": 7816,
      "anensis": 7817,
      "ancii": 7818,
      "ancirano": 7819,
      "ors": 7820,
      "orus": 7821,
      "oritate": 7822,
      "oriū": 7823,
      "orta": 7824,
      "oralis": 7825,
      "orig": 7826,
      "orationem": 7827,
      "orationē": 7828,
      "orantes": 7829,
      "ortę": 7830,
      "ortiu": 7831,
      "orbe": 7832,
      "ordiendis": 7833,
      "icit": 7834,
      "icar": 7835,
      "icio": 7836,
      "icip": 7837,
      "iciū": 7838,
      "icior": 7839,
      "iciis": 7840,
      "icarum": 7841,
      "iculis": 7842,
      "icerent": 7843,
      "icioni": 7844,
      "ictas": 7845,
      "iculorum": 7846,
      "lia": 7847,
      "lii": 7848,
      "liii": 7849,
      "liquis": 7850,
      "liri": 7851,
      "lianensi": 7852,
      "liquore": 7853,
      "deorum": 7854,
      "depro": 7855,
      "deitate": 7856,
      "decipi": 7857,
      "depre": 7858,
      "deuenerit": 7859,
      "deliber": 7860,
      "degere": 7861,
      "decipere": 7862,
      "depulsus": 7863,
      "deinde": 7864,
      "deueniant": 7865,
      "decipiunt": 7866,
      "deferre": 7867,
      "dederit": 7868,
      "deueniens": 7869,
      "degerit": 7870,
      "deperire": 7871,
      "dedisse": 7872,
      "dedimus": 7873,
      "deliquis": 7874,
      "reco": 7875,
      "requi": 7876,
      "recc": 7877,
      "repro": 7878,
      "repl": 7879,
      "recus": 7880,
      "repon": 7881,
      "reatus": 7882,
      "repat": 7883,
      "reuoc": 7884,
      "rept": 7885,
      "reced": 7886,
      "refug": 7887,
      "reput": 7888,
      "recipere": 7889,
      "repulsus": 7890,
      "relat": 7891,
      "recurr": 7892,
      "reat᷒": 7893,
      "refut": 7894,
      "repu": 7895,
      "repare": 7896,
      "reposc": 7897,
      "recedat": 7898,
      "reuocet": 7899,
      "refren": 7900,
      "rehensio": 7901,
      "recognoscit": 7902,
      "refell": 7903,
      "redegerit": 7904,
      "utri": 7905,
      "utionis": 7906,
      "utionem": 7907,
      "utquatuor": 7908,
      "utite": 7909,
      "utram": 7910,
      "utrius": 7911,
      "utras": 7912,
      "ep̄": 7913,
      "epit": 7914,
      "epius": 7915,
      "eptat": 7916,
      "eponere": 7917,
      "ephesum": 7918,
      "iuo": 7919,
      "iudi": 7920,
      "iuol": 7921,
      "iuimus": 7922,
      "iudeo": 7923,
      "iudit": 7924,
      "iuda": 7925,
      "iudeum": 7926,
      "iuuet": 7927,
      "iudeus": 7928,
      "iulio": 7929,
      "iuldus": 7930,
      "iali": 7931,
      "iacon": 7932,
      "iacus": 7933,
      "iacul": 7934,
      "iarum": 7935,
      "iarū": 7936,
      "entel": 7937,
      "entio": 7938,
      "entie": 7939,
      "entini": 7940,
      "entian": 7941,
      "entinę": 7942,
      "entensis": 7943,
      "entiora": 7944,
      "osę": 7945,
      "osū": 7946,
      "osas": 7947,
      "ossit": 7948,
      "ositate": 7949,
      "osten": 7950,
      "ostendit": 7951,
      "ūniant": 7952,
      "ima": 7953,
      "impr": 7954,
      "imatur": 7955,
      "immun": 7956,
      "imauit": 7957,
      "impetr": 7958,
      "immemor": 7959,
      "imerent": 7960,
      "impraesso": 7961,
      "imp̄sso": 7962,
      "imbuere": 7963,
      "coess": 7964,
      "coepiscopi": 7965,
      "coep̅i": 7966,
      "coep̅o": 7967,
      "coepiscopum": 7968,
      "coep̅m": 7969,
      "coact": 7970,
      "coepiscopos": 7971,
      "coep̅os": 7972,
      "coxit": 7973,
      "coire": 7974,
      "cohęrere": 7975,
      "coaet": 7976,
      "coepit": 7977,
      "amq": 7978,
      "amor": 7979,
      "amia": 7980,
      "amos": 7981,
      "amitate": 7982,
      "amine": 7983,
      "amicis": 7984,
      "amandi": 7985,
      "amico": 7986,
      "amentiā": 7987,
      "amarent": 7988,
      "amicorum": 7989,
      "amiserit": 7990,
      "amines": 7991,
      "amanu": 7992,
      "uro": 7993,
      "uris": 7994,
      "uriensi": 7995,
      "urdensis": 7996,
      "uritano": 7997,
      "sedic": 7998,
      "seui": 7999,
      "semin": 8000,
      "seuius": 8001,
      "seuero": 8002,
      "seced": 8003,
      "segreg": 8004,
      "sedeat": 8005,
      "seleu": 8006,
      "seipsos": 8007,
      "acci": 8008,
      "accip": 8009,
      "acitatis": 8010,
      "achi": 8011,
      "acquir": 8012,
      "access": 8013,
      "acerr": 8014,
      "aconensi": 8015,
      "accipimus": 8016,
      "accipiant": 8017,
      "acgarensi": 8018,
      "actantes": 8019,
      "pran": 8020,
      "pror": 8021,
      "prio": 8022,
      "prag": 8023,
      "prist": 8024,
      "prisc": 8025,
      "principi": 8026,
      "presserit": 8027,
      "iberet": 8028,
      "ibulis": 8029,
      "ibutionis": 8030,
      "suerit": 8031,
      "suess": 8032,
      "suers": 8033,
      "suplem": 8034,
      "succid": 8035,
      "dium": 8036,
      "dire": 8037,
      "diiu": 8038,
      "didi": 8039,
      "didicit": 8040,
      "dirip": 8041,
      "dida": 8042,
      "dixer": 8043,
      "direxerit": 8044,
      "direxerunt": 8045,
      "diqnitas": 8046,
      "emol": 8047,
      "emunt": 8048,
      "emeret": 8049,
      "eminere": 8050,
      "embr": 8051,
      "emerserit": 8052,
      "arn": 8053,
      "ar̅": 8054,
      "arꝝ": 8055,
      "arat": 8056,
      "aros": 8057,
      "arte": 8058,
      "arist": 8059,
      "ardam": 8060,
      "aritatis": 8061,
      "arten": 8062,
      "arceatur": 8063,
      "arabis": 8064,
      "ula": 8065,
      "ulg": 8066,
      "ulari": 8067,
      "ulpat": 8068,
      "ulchr": 8069,
      "ulcis": 8070,
      "ularit": 8071,
      "ulcisc": 8072,
      "condic": 8073,
      "conpro": 8074,
      "confr": 8075,
      "concl": 8076,
      "concor": 8077,
      "concipi": 8078,
      "confug": 8079,
      "concipere": 8080,
      "conuener": 8081,
      "contric": 8082,
      "condit": 8083,
      "conuocatus": 8084,
      "conferat": 8085,
      "conpassione": 8086,
      "condecet": 8087,
      "conpellat": 8088,
      "concordi": 8089,
      "contendit": 8090,
      "confir": 8091,
      "consentire": 8092,
      "conpulsis": 8093,
      "conprouintia": 8094,
      "condonare": 8095,
      "consensis": 8096,
      "antis": 8097,
      "anter": 8098,
      "antię": 8099,
      "antior": 8100,
      "anteponere": 8101,
      "adu": 8102,
      "adun": 8103,
      "adol": 8104,
      "adot": 8105,
      "adui": 8106,
      "addu": 8107,
      "adnis": 8108,
      "adsint": 8109,
      "adhib": 8110,
      "admissa": 8111,
      "adspir": 8112,
      "adueniat": 8113,
      "addicit": 8114,
      "adduc": 8115,
      "adsist": 8116,
      "aduenit": 8117,
      "adueniant": 8118,
      "adimi": 8119,
      "adsign": 8120,
      "admittere": 8121,
      "adduxerit": 8122,
      "adhortamur": 8123,
      "adnunti": 8124,
      "adinpl": 8125,
      "adhęrere": 8126,
      "addiscere": 8127,
      "adiso": 8128,
      "adiuuet": 8129,
      "adimatur": 8130,
      "ionum": 8131,
      "ionū": 8132,
      "ionarius": 8133,
      "ec̅": 8134,
      "ecch": 8135,
      "eclet": 8136,
      "ecꝉam": 8137,
      "ueri": 8138,
      "ueret": 8139,
      "ueras": 8140,
      "uerius": 8141,
      "uerbi": 8142,
      "uerbis": 8143,
      "uertendo": 8144,
      "uerbum": 8145,
      "uerbū": 8146,
      "appare": 8147,
      "apponentes": 8148,
      "apperire": 8149,
      "apez": 8150,
      "apamia": 8151,
      "unci": 8152,
      "unal": 8153,
      "unali": 8154,
      "unca": 8155,
      "uncul": 8156,
      "unanim": 8157,
      "unihil": 8158,
      "abi": 8159,
      "abitis": 8160,
      "abhomin": 8161,
      "absoluatur": 8162,
      "ablu": 8163,
      "abiciunt": 8164,
      "ablatis": 8165,
      "abducit": 8166,
      "aburg": 8167,
      "abluere": 8168,
      "abortiu": 8169,
      "abicit": 8170,
      "cide": 8171,
      "cianus": 8172,
      "ciperet": 8173,
      "sideb": 8174,
      "siquis": 8175,
      "siquid": 8176,
      "sipare": 8177,
      "sixti": 8178,
      "signis": 8179,
      "omus": 8180,
      "omeli": 8181,
      "omissum": 8182,
      "omedic": 8183,
      "quio": 8184,
      "quiin": 8185,
      "quiri": 8186,
      "quiescit": 8187,
      "quillac": 8188,
      "esti": 8189,
      "estis": 8190,
      "estatione": 8191,
      "estuos": 8192,
      "estseptemdies": 8193,
      "estiuo": 8194,
      "sta": 8195,
      "sti": 8196,
      "stis": 8197,
      "stes": 8198,
      "stulerit": 8199,
      "strauerit": 8200,
      "stancii": 8201,
      "episcatus": 8202,
      "ola": 8203,
      "olo": 8204,
      "oles": 8205,
      "olei": 8206,
      "olaus": 8207,
      "olinia": 8208,
      "olanensis": 8209,
      "coporis": 8210,
      "copularit": 8211,
      "alloc": 8212,
      "alariter": 8213,
      "alisset": 8214,
      "alloqu": 8215,
      "alitia": 8216,
      "alricus": 8217,
      "allatis": 8218,
      "aldus": 8219,
      "aluuar": 8220,
      "alinenus": 8221,
      "alatensi": 8222,
      "episcopiū": 8223,
      "episcoporū": 8224,
      "episcopat᷒": 8225,
      "alienus": 8226,
      "aliubi": 8227,
      "aliquas": 8228,
      "aliqͦ": 8229,
      "aliquorū": 8230,
      "alimenta": 8231,
      "dicus": 8232,
      "dicendum": 8233,
      "diceret": 8234,
      "dicationes": 8235,
      "dicendū": 8236,
      "dictur": 8237,
      "dicendus": 8238,
      "dict̅": 8239,
      "dicerent": 8240,
      "dicasse": 8241,
      "ocere": 8242,
      "ociū": 8243,
      "ocini": 8244,
      "oculos": 8245,
      "ocritate": 8246,
      "occide": 8247,
      "ela": 8248,
      "elebr": 8249,
      "c̅tem": 8250,
      "c̅cul": 8251,
      "c̅uener": 8252,
      "c̅sid": 8253,
      "c̅cub": 8254,
      "c̅uell": 8255,
      "c̅putant": 8256,
      "c̅firmetur": 8257,
      "c̅iung": 8258,
      "c̅tigerit": 8259,
      "c̅sentire": 8260,
      "c̅tendunt": 8261,
      "c̅sanguine": 8262,
      "aspon": 8263,
      "asserit": 8264,
      "asino": 8265,
      "assensu": 8266,
      "ascrip": 8267,
      "assolent": 8268,
      "assump": 8269,
      "asscitis": 8270,
      "aspici": 8271,
      "asinaria": 8272,
      "autv": 8273,
      "autoritate": 8274,
      "nonnulli": 8275,
      "iussi": 8276,
      "iussit": 8277,
      "iusti": 8278,
      "iussus": 8279,
      "iustin": 8280,
      "iussum": 8281,
      "iusto": 8282,
      "iusserit": 8283,
      "iussionibus": 8284,
      "exer": 8285,
      "expl": 8286,
      "exag": 8287,
      "expos": 8288,
      "exti": 8289,
      "exhab": 8290,
      "extin": 8291,
      "extol": 8292,
      "exitus": 8293,
      "expul": 8294,
      "exerint": 8295,
      "extu": 8296,
      "exten": 8297,
      "exteris": 8298,
      "exire": 8299,
      "exarch": 8300,
      "exult": 8301,
      "exordine": 8302,
      "exitum": 8303,
      "exierit": 8304,
      "exinde": 8305,
      "exitū": 8306,
      "extor": 8307,
      "existe": 8308,
      "exposc": 8309,
      "excedat": 8310,
      "exhort": 8311,
      "expulsis": 8312,
      "exegerint": 8313,
      "expulsos": 8314,
      "existeret": 8315,
      "excoxit": 8316,
      "ilo": 8317,
      "ilem": 8318,
      "ilitas": 8319,
      "ilitatis": 8320,
      "ilitare": 8321,
      "ilatę": 8322,
      "perag": 8323,
      "perdu": 8324,
      "perfic": 8325,
      "peretur": 8326,
      "perimus": 8327,
      "percep": 8328,
      "periur": 8329,
      "permissa": 8330,
      "perueniat": 8331,
      "perim᷒": 8332,
      "perierit": 8333,
      "permissum": 8334,
      "pertract": 8335,
      "perpend": 8336,
      "perscripta": 8337,
      "persec": 8338,
      "permot": 8339,
      "perseuer": 8340,
      "perabiliter": 8341,
      "perlecta": 8342,
      "pertrecentos": 8343,
      "perver": 8344,
      "peractis": 8345,
      "peruerse": 8346,
      "pernitios": 8347,
      "pergant": 8348,
      "perquiri": 8349,
      "oda": 8350,
      "odos": 8351,
      "odere": 8352,
      "Deinde": 8353,
      "Deinceps": 8354,
      "Debet": 8355,
      "Definit": 8356,
      "Debuer": 8357,
      "itata": 8358,
      "itatus": 8359,
      "tribi": 8360,
      "tretur": 8361,
      "trist": 8362,
      "tring": 8363,
      "triste": 8364,
      "trapez": 8365,
      "iunii": 8366,
      "iunxerit": 8367,
      "tert": 8368,
      "teria": 8369,
      "teretur": 8370,
      "terminis": 8371,
      "terpell": 8372,
      "tercia": 8373,
      "oth": 8374,
      "otius": 8375,
      "ccc": 8376,
      "ccxvii": 8377,
      "ccxxx": 8378,
      "ccxxxiii": 8379,
      "ccxxxviii": 8380,
      "endit": 8381,
      "endare": 8382,
      "endantur": 8383,
      "enditur": 8384,
      "iohanni": 8385,
      "uideb": 8386,
      "uires": 8387,
      "uilius": 8388,
      "uiatori": 8389,
      "profer": 8390,
      "provi": 8391,
      "propt̅": 8392,
      "prouocant": 8393,
      "prouehi": 8394,
      "auis": 8395,
      "auct": 8396,
      "auari": 8397,
      "audies": 8398,
      "audiu": 8399,
      "audes": 8400,
      "augere": 8401,
      "auferre": 8402,
      "auuncul": 8403,
      "ebitis": 8404,
      "n̅nulli": 8405,
      "cruc": 8406,
      "crescere": 8407,
      "crescente": 8408,
      "crudel": 8409,
      "crismate": 8410,
      "criberet": 8411,
      "aremus": 8412,
      "intus": 8413,
      "intent": 8414,
      "intex": 8415,
      "inthr": 8416,
      "intulit": 8417,
      "intho": 8418,
      "intimauit": 8419,
      "intenditur": 8420,
      "egente": 8421,
      "egredi": 8422,
      "debes": 8423,
      "debea": 8424,
      "deberi": 8425,
      "deberet": 8426,
      "debito": 8427,
      "debitum": 8428,
      "debitū": 8429,
      "debiti": 8430,
      "debebunt": 8431,
      "debuisti": 8432,
      "debilitare": 8433,
      "quisqͥs": 8434,
      "quisesset": 8435,
      "nectat": 8436,
      "necauerit": 8437,
      "eatim": 8438,
      "ple": 8439,
      "plat": 8440,
      "plex": 8441,
      "plag": 8442,
      "plate": 8443,
      "plasphem": 8444,
      "pleuerit": 8445,
      "fidis": 8446,
      "fidit": 8447,
      "fidię": 8448,
      "ipisce": 8449,
      "uitan": 8450,
      "uitius": 8451,
      "uitasse": 8452,
      "agint": 8453,
      "agens": 8454,
      "agantur": 8455,
      "agitur": 8456,
      "agendo": 8457,
      "agamus": 8458,
      "agog": 8459,
      "agite": 8460,
      "agitare": 8461,
      "agitati": 8462,
      "agnell": 8463,
      "agitata": 8464,
      "ober": 8465,
      "obtem": 8466,
      "obris": 8467,
      "obrem": 8468,
      "obaudi": 8469,
      "obsist": 8470,
      "obtend": 8471,
      "obiurg": 8472,
      "obeunt": 8473,
      "obtulisse": 8474,
      "oborta": 8475,
      "obicerent": 8476,
      "obrepat": 8477,
      "obpresserit": 8478,
      "issime": 8479,
      "ordinatur": 8480,
      "ordinator": 8481,
      "ordinato": 8482,
      "ordinando": 8483,
      "ordinaret": 8484,
      "ordinatoribus": 8485,
      "queus": 8486,
      "queos": 8487,
      "quedam": 8488,
      "quedā": 8489,
      "uenator": 8490,
      "ueniunt": 8491,
      "ueneficos": 8492,
      "uenenatas": 8493,
      "sedet": 8494,
      "sedib": 8495,
      "sedibus": 8496,
      "sederit": 8497,
      "sedantur": 8498,
      "sedenti": 8499,
      "ominię": 8500,
      "andre": 8501,
      "andriam": 8502,
      "sactio": 8503,
      "posuisse": 8504,
      "posito": 8505,
      "possid": 8506,
      "positione": 8507,
      "possumus": 8508,
      "possideb": 8509,
      "possederit": 8510,
      "situs": 8511,
      "sitanus": 8512,
      "Quos": 8513,
      "Quorum": 8514,
      "Quare": 8515,
      "Quotiens": 8516,
      "Quoniā": 8517,
      "Quauis": 8518,
      "iamini": 8519,
      "lescat": 8520,
      "tię": 8521,
      "tiis": 8522,
      "tiorum": 8523,
      "iudicatis": 8524,
      "iudicati": 8525,
      "iudicentur": 8526,
      "iudicatio": 8527,
      "iudicanda": 8528,
      "iudicando": 8529,
      "iudicauit": 8530,
      "iudicaret": 8531,
      "iudicantibus": 8532,
      "iudicandos": 8533,
      "iudicabimini": 8534,
      "ullo": 8535,
      "ullus": 8536,
      "ullam": 8537,
      "ullā": 8538,
      "aturi": 8539,
      "aturos": 8540,
      "aturam": 8541,
      "omne": 8542,
      "cipim᷒": 8543,
      "porali": 8544,
      "porcar": 8545,
      "uelint": 8546,
      "uella": 8547,
      "demum": 8548,
      "demerg": 8549,
      "demonstr": 8550,
      "demendic": 8551,
      "quęfuerit": 8552,
      "quęfiunt": 8553,
      "quęrimon": 8554,
      "quęrat": 8555,
      "quęrenda": 8556,
      "quęsitus": 8557,
      "itulante": 8558,
      "p̄su": 8559,
      "p̄est": 8560,
      "p̄ee̅": 8561,
      "p̄fuit": 8562,
      "p̄senti": 8563,
      "p̄sens": 8564,
      "p̄sid": 8565,
      "p̄fix": 8566,
      "p̄cipiant": 8567,
      "p̄decess": 8568,
      "p̄grauari": 8569,
      "habi": 8570,
      "habitat": 8571,
      "habentes": 8572,
      "habenda": 8573,
      "habitu": 8574,
      "habitare": 8575,
      "haberent": 8576,
      "habebat": 8577,
      "habendę": 8578,
      "liceri": 8579,
      "licto": 8580,
      "lictio": 8581,
      "licent̅": 8582,
      "rienn": 8583,
      "rietate": 8584,
      "incunct": 8585,
      "incho": 8586,
      "incarn": 8587,
      "inculpat": 8588,
      "incestuos": 8589,
      "arię": 8590,
      "ariores": 8591,
      "ectū": 8592,
      "ectionis": 8593,
      "duab": 8594,
      "duas": 8595,
      "dudum": 8596,
      "dudū": 8597,
      "duabus": 8598,
      "duxerint": 8599,
      "ducię": 8600,
      "duximus": 8601,
      "duplex": 8602,
      "dominos": 8603,
      "dominorum": 8604,
      "dominatione": 8605,
      "dominationes": 8606,
      "dominicoꝝ": 8607,
      "sermo": 8608,
      "series": 8609,
      "seriem": 8610,
      "serenissimus": 8611,
      "entialem": 8612,
      "facius": 8613,
      "facio": 8614,
      "facie": 8615,
      "facilli": 8616,
      "factur": 8617,
      "factione": 8618,
      "parat": 8619,
      "parens": 8620,
      "parentes": 8621,
      "parua": 8622,
      "parauerit": 8623,
      "parentis": 8624,
      "parroc": 8625,
      "parandas": 8626,
      "parricida": 8627,
      "parentel": 8628,
      "paradiso": 8629,
      "sola": 8630,
      "solis": 8631,
      "soluerit": 8632,
      "soleat": 8633,
      "solati": 8634,
      "solatio": 8635,
      "soluendi": 8636,
      "solandos": 8637,
      "solitariis": 8638,
      "illet": 8639,
      "illā": 8640,
      "illatio": 8641,
      "missę": 8642,
      "missus": 8643,
      "ięiun": 8644,
      "nullum": 8645,
      "nullū": 8646,
      "nullas": 8647,
      "nullaten᷒": 8648,
      "fret": 8649,
      "fraud": 8650,
      "fruatur": 8651,
      "fretis": 8652,
      "frisię": 8653,
      "fraudes": 8654,
      "Siquis": 8655,
      "Sixti": 8656,
      "praet": 8657,
      "praeu": 8658,
      "praegr": 8659,
      "praessis": 8660,
      "compon": 8661,
      "commodo": 8662,
      "committ": 8663,
      "commissas": 8664,
      "commisso": 8665,
      "commisit": 8666,
      "compellantur": 8667,
      "commutet": 8668,
      "compescere": 8669,
      "comperimus": 8670,
      "commissę": 8671,
      "casu": 8672,
      "dispar": 8673,
      "discor": 8674,
      "discurr": 8675,
      "dispositis": 8676,
      "discedat": 8677,
      "dissipare": 8678,
      "distring": 8679,
      "dispositione": 8680,
      "fica": 8681,
      "fices": 8682,
      "ficeretur": 8683,
      "temus": 8684,
      "regn": 8685,
      "regin": 8686,
      "regum": 8687,
      "regia": 8688,
      "regibus": 8689,
      "regunt": 8690,
      "regitur": 8691,
      "regionarius": 8692,
      "minent": 8693,
      "minac": 8694,
      "minore": 8695,
      "minori": 8696,
      "minorib": 8697,
      "minimis": 8698,
      "mindun": 8699,
      "subli": 8700,
      "subeat": 8701,
      "substit": 8702,
      "subuenire": 8703,
      "subtus": 8704,
      "subito": 8705,
      "subministr": 8706,
      "subire": 8707,
      "subsid": 8708,
      "subs̅": 8709,
      "suburb": 8710,
      "subleu": 8711,
      "subni": 8712,
      "subdiaconus": 8713,
      "submittere": 8714,
      "submou": 8715,
      "subulcus": 8716,
      "subintrod": 8717,
      "subtiliter": 8718,
      "substa": 8719,
      "ęccꝉis": 8720,
      "ęccꝉas": 8721,
      "pons": 8722,
      "ponunt": 8723,
      "poneret": 8724,
      "pondere": 8725,
      "ponderunt": 8726,
      "accusant": 8727,
      "accusatione": 8728,
      "accusandi": 8729,
      "accusabilis": 8730,
      "accusat᷒": 8731,
      "accusabit": 8732,
      "accusantiū": 8733,
      "udat": 8734,
      "udit": 8735,
      "nelii": 8736,
      "itaq": 8737,
      "itaque": 8738,
      "itastis": 8739,
      "gram": 8740,
      "grac": 8741,
      "grangrensi": 8742,
      "gradi": 8743,
      "grani": 8744,
      "grudu": 8745,
      "iteri": 8746,
      "itero": 8747,
      "tauerint": 8748,
      "taiuerit": 8749,
      "taxat": 8750,
      "tauritano": 8751,
      "sanę": 8752,
      "sanare": 8753,
      "sanitate": 8754,
      "sanitatis": 8755,
      "sustineant": 8756,
      "suscepis": 8757,
      "susciperet": 8758,
      "muni": 8759,
      "munita": 8760,
      "mundo": 8761,
      "municip": 8762,
      "nosci": 8763,
      "nostis": 8764,
      "nosmet": 8765,
      "quiae": 8766,
      "inequalitas": 8767,
      "fueritis": 8768,
      "ueniet": 8769,
      "uenientes": 8770,
      "ueniente": 8771,
      "ueniendo": 8772,
      "ueniret": 8773,
      "uenirent": 8774,
      "edia": 8775,
      "edine": 8776,
      "edendis": 8777,
      "sacerdociū": 8778,
      "seruis": 8779,
      "seruū": 8780,
      "seruata": 8781,
      "seruentur": 8782,
      "seruaturos": 8783,
      "cleri": 8784,
      "claret": 8785,
      "clade": 8786,
      "clxxvi": 8787,
      "clxxxiii": 8788,
      "clauig": 8789,
      "clepius": 8790,
      "clamarent": 8791,
      "clariores": 8792,
      "potes": 8793,
      "potentia": 8794,
      "potior": 8795,
      "potentis": 8796,
      "potiones": 8797,
      "potiorum": 8798,
      "potissimum": 8799,
      "potiorū": 8800,
      "potissimū": 8801,
      "potiri": 8802,
      "potuisset": 8803,
      "uisus": 8804,
      "uiscer": 8805,
      "uissio": 8806,
      "uisitandis": 8807,
      "reser": 8808,
      "resop": 8809,
      "resist": 8810,
      "rescrips": 8811,
      "resumptione": 8812,
      "chatus": 8813,
      "charist": 8814,
      "opem": 8815,
      "oppon": 8816,
      "optin": 8817,
      "optent": 8818,
      "optim": 8819,
      "optime": 8820,
      "opitulante": 8821,
      "oppraessis": 8822,
      "synodorum": 8823,
      "sanctos": 8824,
      "sanctione": 8825,
      "sanctiones": 8826,
      "sanctissimo": 8827,
      "anteꝑ": 8828,
      "anteferre": 8829,
      "uincla": 8830,
      "idit": 8831,
      "idas": 8832,
      "idiacon": 8833,
      "petent": 8834,
      "petere": 8835,
      "petris": 8836,
      "petitur": 8837,
      "peteret": 8838,
      "petitione": 8839,
      "petisset": 8840,
      "xxvii": 8841,
      "xxviiii": 8842,
      "annue": 8843,
      "tini": 8844,
      "sacerdoti": 8845,
      "sacerdotali": 8846,
      "sacerdotē": 8847,
      "sacerdotiū": 8848,
      "sacerdotalem": 8849,
      "sacerdotalē": 8850,
      "feratur": 8851,
      "ferantur": 8852,
      "fertur": 8853,
      "ligandi": 8854,
      "ligauerit": 8855,
      "ligamenta": 8856,
      "corrum": 8857,
      "corrū": 8858,
      "correxit": 8859,
      "cornoris": 8860,
      "corrept": 8861,
      "corintho": 8862,
      "cornelii": 8863,
      "pat̅": 8864,
      "patit": 8865,
      "patet": 8866,
      "patri": 8867,
      "patern": 8868,
      "patimur": 8869,
      "pateremur": 8870,
      "patiamini": 8871,
      "sc̅issimo": 8872,
      "toletano": 8873,
      "toletan": 8874,
      "legere": 8875,
      "legerit": 8876,
      "legatum": 8877,
      "legauerit": 8878,
      "legatū": 8879,
      "legatos": 8880,
      "trahi": 8881,
      "traxerit": 8882,
      "decime": 8883,
      "decani": 8884,
      "metuant": 8885,
      "om̅ipot": 8886,
      "Etsi": 8887,
      "quoquam": 8888,
      "quoquā": 8889,
      "quolibet": 8890,
      "libri": 8891,
      "libris": 8892,
      "liberet": 8893,
      "libenter": 8894,
      "libent̅": 8895,
      "libelli": 8896,
      "portę": 8897,
      "porteat": 8898,
      "portione": 8899,
      "portanda": 8900,
      "portauit": 8901,
      "cōpon": 8902,
      "cōmissis": 8903,
      "cōput": 8904,
      "cōmissas": 8905,
      "cōmisso": 8906,
      "cōpleta": 8907,
      "cōmisit": 8908,
      "cōmutet": 8909,
      "cōperim᷒": 8910,
      "astulo": 8911,
      "astuta": 8912,
      "astigit": 8913,
      "asticus": 8914,
      "sumpserit": 8915,
      "iorem": 8916,
      "iorē": 8917,
      "cano": 8918,
      "canes": 8919,
      "canere": 8920,
      "candel": 8921,
      "sentiunt": 8922,
      "sentiret": 8923,
      "olites": 8924,
      "mane": 8925,
      "mansit": 8926,
      "maneant": 8927,
      "manente": 8928,
      "manebit": 8929,
      "istas": 8930,
      "istā": 8931,
      "ciues": 8932,
      "ciuium": 8933,
      "ciuiū": 8934,
      "ciuili": 8935,
      "ciuilem": 8936,
      "erigit": 8937,
      "cart": 8938,
      "carens": 8939,
      "caritas": 8940,
      "cardo": 8941,
      "cardin": 8942,
      "cartag": 8943,
      "carolus": 8944,
      "cardine": 8945,
      "atī": 8946,
      "iliares": 8947,
      "sce": 8948,
      "sciam": 8949,
      "sciunt": 8950,
      "scꝉa": 8951,
      "sciturus": 8952,
      "tēper": 8953,
      "uocem": 8954,
      "uocē": 8955,
      "uocetur": 8956,
      "uocante": 8957,
      "uocationes": 8958,
      "uocamus": 8959,
      "uocatos": 8960,
      "uocam᷒": 8961,
      "maxi": 8962,
      "maiorū": 8963,
      "atorib": 8964,
      "atorē": 8965,
      "cepit": 8966,
      "cephas": 8967,
      "dn̅icis": 8968,
      "dn̅ici": 8969,
      "sicili": 8970,
      "primū": 8971,
      "primunt": 8972,
      "primatis": 8973,
      "metropolis": 8974,
      "metropoles": 8975,
      "ira": 8976,
      "irati": 8977,
      "irrog": 8978,
      "icaverit": 8979,
      "nego": 8980,
      "negare": 8981,
      "neglect": 8982,
      "negauerit": 8983,
      "negle": 8984,
      "neglecta": 8985,
      "alteram": 8986,
      "alterā": 8987,
      "alternas": 8988,
      "canonis": 8989,
      "ptoribus": 8990,
      "ptias": 8991,
      "pterea": 8992,
      "Indec": 8993,
      "Infirm": 8994,
      "Innoc": 8995,
      "Infames": 8996,
      "Inquirendū": 8997,
      "Incerta": 8998,
      "Inducię": 8999,
      "moech": 9000,
      "molimin": 9001,
      "ingus": 9002,
      "ingem": 9003,
      "ingeri": 9004,
      "eidē": 9005,
      "qͥdā": 9006,
      "presentia": 9007,
      "presentis": 9008,
      "celis": 9009,
      "celes": 9010,
      "celum": 9011,
      "celū": 9012,
      "celans": 9013,
      "celebri": 9014,
      "celtac": 9015,
      "celelebr": 9016,
      "abstv": 9017,
      "abstrah": 9018,
      "abstulisse": 9019,
      "potestates": 9020,
      "potestatibus": 9021,
      "potestatib": 9022,
      "curę": 9023,
      "curię": 9024,
      "curabit": 9025,
      "currisse": 9026,
      "quadrienn": 9027,
      "uolentes": 9028,
      "uoluisse": 9029,
      "uolentibus": 9030,
      "uolueris": 9031,
      "uoluer̅": 9032,
      "fratrē": 9033,
      "fratricida": 9034,
      "ituri": 9035,
      "ęcclesias": 9036,
      "obseruet": 9037,
      "obseruan": 9038,
      "obseruetur": 9039,
      "obseruantur": 9040,
      "obseruauerit": 9041,
      "obseruauit": 9042,
      "obseruabis": 9043,
      "transit": 9044,
      "transim": 9045,
      "transtulerit": 9046,
      "transactio": 9047,
      "interfuerit": 9048,
      "interpell": 9049,
      "interitu": 9050,
      "interdicit": 9051,
      "interitum": 9052,
      "interitū": 9053,
      "interfecerint": 9054,
      "interueniente": 9055,
      "suae": 9056,
      "suadeat": 9057,
      "apositus": 9058,
      "ellanis": 9059,
      "communes": 9060,
      "communicaverit": 9061,
      "histr": 9062,
      "hispan": 9063,
      "uico": 9064,
      "uicus": 9065,
      "uicio": 9066,
      "uiciis": 9067,
      "uiculis": 9068,
      "uicinę": 9069,
      "uicarius": 9070,
      "redit": 9071,
      "reditū": 9072,
      "reddere": 9073,
      "reddatis": 9074,
      "cęli": 9075,
      "cęco": 9076,
      "cęlo": 9077,
      "cęnā": 9078,
      "eosq": 9079,
      "eosque": 9080,
      "foris": 9081,
      "forma": 9082,
      "fortas": 9083,
      "placent": 9084,
      "placare": 9085,
[...]
